<unk>	0
<s>	0
</s>	0
<pad>	0
<PAD>	0
,	-3.3379
s	-3.42378
.	-3.53955
▁the	-3.91382
▁	-4.22407
en	-4.30168
▁in	-4.38263
n	-4.39381
e	-4.49711
▁of	-4.68765
▁die	-4.70409
▁der	-4.71529
▁to	-4.75313
t	-4.78074
▁a	-4.9135
-	-4.98922
▁and	-5.01822
▁und	-5.01962
er	-5.13911
▁"	-5.1827
r	-5.2618
ing	-5.26589
ed	-5.40392
d	-5.4721
▁zu	-5.59891
▁is	-5.62269
'	-5.63789
▁von	-5.66704
▁den	-5.68393
▁for	-5.74061
▁be	-5.75199
▁that	-5.75873
▁an	-5.82414
m	-5.85827
▁The	-5.86976
▁on	-5.93142
▁das	-5.95157
▁auf	-5.98149
▁was	-5.99135
▁mit	-5.99849
y	-6.02087
▁ein	-6.02176
l	-6.08216
▁ist	-6.09185
"	-6.11218
▁dass	-6.11335
▁im	-6.1508
▁with	-6.15359
▁für	-6.15744
k	-6.16056
:	-6.17097
in	-6.18187
▁des	-6.19008
es	-6.19067
f	-6.20064
▁er	-6.20573
▁sich	-6.20607
a	-6.20964
▁nicht	-6.22342
▁dem	-6.23082
ly	-6.25742
p	-6.27054
▁eine	-6.27608
▁it	-6.28803
▁Die	-6.31263
o	-6.36485
te	-6.36579
b	-6.36823
▁es	-6.37283
▁are	-6.37752
▁-	-6.40545
re	-6.41627
ung	-6.42665
h	-6.43354
▁sie	-6.44403
g	-6.45365
▁by	-6.45956
▁as	-6.46004
▁not	-6.48213
▁he	-6.49435
▁from	-6.50914
▁at	-6.51369
▁In	-6.52757
▁als	-6.53163
▁have	-6.53427
i	-6.54079
al	-6.54838
▁I	-6.55446
▁aus	-6.56131
z	-6.56169
ten	-6.56827
▁has	-6.60303
▁so	-6.60682
▁will	-6.6099
▁A	-6.61056
▁(	-6.61262
▁um	-6.61704
an	-6.63702
▁S	-6.65551
c	-6.6654
▁said	-6.69677
w	-6.7017
▁his	-6.74288
el	-6.74576
st	-6.7515
▁war	-6.75687
▁hat	-6.76109
▁über	-6.76706
▁ver	-6.782
▁am	-6.78555
▁auch	-6.79653
▁vor	-6.80462
▁bei	-6.82517
▁werden	-6.83356
ch	-6.84639
."	-6.84984
▁this	-6.85305
le	-6.86754
u	-6.87373
▁nach	-6.87798
▁einer	-6.87958
v	-6.88434
ü	-6.89715
",	-6.93043
)	-6.9305
▁einem	-6.9379
,"	-6.93873
▁ge	-6.94403
▁who	-6.94867
or	-6.95388
▁wird	-6.97601
▁which	-6.98032
▁sind	-6.98605
ation	-7.00125
ar	-7.0063
S	-7.01048
▁had	-7.01176
▁sagte	-7.01317
▁Der	-7.01389
it	-7.01478
▁wie	-7.01731
▁their	-7.02981
▁haben	-7.03081
▁einen	-7.04148
▁K	-7.04238
il	-7.05462
ä	-7.0551
▁wurde	-7.06749
ur	-7.06879
ge	-7.07329
▁re	-7.09699
▁were	-7.09754
▁they	-7.11231
▁been	-7.14594
▁also	-7.14821
on	-7.17192
A	-7.19487
▁T	-7.19891
at	-7.20129
▁sein	-7.20735
▁Er	-7.20841
la	-7.21198
▁but	-7.21584
th	-7.22093
▁Be	-7.22843
et	-7.23424
▁we	-7.23502
▁or	-7.23766
ig	-7.24136
▁An	-7.24271
sch	-7.24571
ver	-7.25505
▁B	-7.26254
ro	-7.2664
ic	-7.26979
▁more	-7.27664
▁E	-7.27757
de	-7.282
▁man	-7.28891
id	-7.29596
▁He	-7.3111
▁aber	-7.31239
▁all	-7.31766
ra	-7.31982
▁M	-7.32991
▁C	-7.33306
▁F	-7.34209
▁one	-7.34259
ter	-7.34294
der	-7.35263
▁noch	-7.35734
ri	-7.35963
is	-7.36196
▁Das	-7.36505
▁up	-7.36889
▁oder	-7.37337
▁Sie	-7.37643
▁Sch	-7.38312
ers	-7.38419
▁people	-7.39977
ir	-7.40173
be	-7.4038
▁can	-7.40516
▁out	-7.40558
ie	-7.40836
M	-7.41871
ul	-7.41938
▁ich	-7.42678
em	-7.42982
ion	-7.43957
▁P	-7.44331
▁un	-7.45506
▁durch	-7.45649
ol	-7.45687
▁about	-7.46361
li	-7.46958
?	-7.46972
▁nur	-7.47454
▁would	-7.47933
▁zum	-7.48087
den	-7.48639
▁mehr	-7.48792
ve	-7.48903
C	-7.48934
▁wir	-7.49022
um	-7.49049
▁G	-7.49066
▁Ein	-7.49306
P	-7.49308
▁its	-7.49776
I	-7.50196
ll	-7.50504
ce	-7.50552
▁seine	-7.50881
▁over	-7.51116
▁her	-7.52764
▁you	-7.53469
▁there	-7.53848
▁Re	-7.54182
us	-7.55333
2	-7.55793
▁no	-7.56053
▁H	-7.56548
am	-7.56565
▁ihre	-7.56567
▁hatte	-7.5691
▁Es	-7.57077
▁unter	-7.57118
▁It	-7.58727
▁time	-7.58833
ma	-7.59546
▁new	-7.604
".	-7.60492
▁de	-7.60522
▁after	-7.60663
ck	-7.61847
ne	-7.62028
3	-7.62064
ist	-7.62119
▁year	-7.62202
au	-7.62731
▁St	-7.63382
B	-7.63498
▁zur	-7.64353
▁Ver	-7.65225
lo	-7.66743
▁than	-7.67204
se	-7.68458
▁years	-7.68467
ta	-7.69169
▁ab	-7.70251
▁W	-7.70426
ein	-7.70495
▁two	-7.71508
▁f	-7.7151
▁when	-7.71656
T	-7.72238
▁bis	-7.72297
ern	-7.73039
▁first	-7.73242
4	-7.73858
he	-7.74493
to	-7.75143
▁Ge	-7.75245
ad	-7.75382
ent	-7.75426
ut	-7.75851
▁p	-7.76084
▁diese	-7.7651
ieren	-7.77451
7	-7.7774
6	-7.78214
▁D	-7.78356
▁Da	-7.78384
▁Jahr	-7.78558
5	-7.78559
me	-7.78676
▁only	-7.794
un	-7.79738
▁k	-7.79766
▁R	-7.80014
▁habe	-7.80102
▁into	-7.80165
▁she	-7.80592
▁sei	-7.8138
D	-7.81691
ke	-7.82117
lich	-7.83083
gen	-7.83138
F	-7.8315
R	-7.8327
▁do	-7.83449
ment	-7.83703
▁wurden	-7.83711
▁wenn	-7.84048
ach	-7.84397
▁other	-7.84454
mo	-7.84464
age	-7.84736
as	-7.85939
iert	-7.85941
▁c	-7.86059
▁kann	-7.86331
▁st	-7.86361
▁So	-7.86366
im	-7.86447
ungen	-7.86592
▁now	-7.86811
ischen	-7.86947
▁Le	-7.87337
▁19	-7.87471
▁zwei	-7.87676
▁gegen	-7.87856
ho	-7.87911
▁L	-7.8797
▁Aus	-7.88284
zu	-7.8892
▁La	-7.89131
ive	-7.901
▁U	-7.90613
ia	-7.91236
▁could	-7.92232
E	-7.92272
▁N	-7.92286
▁Vor	-7.92606
▁pro	-7.92622
ka	-7.92821
tion	-7.93578
▁Menschen	-7.94562
▁But	-7.9544
land	-7.9596
▁keine	-7.96563
man	-7.96612
▁können	-7.97552
K	-7.97664
ik	-7.98091
▁Prozent	-7.98113
tr	-7.98933
co	-7.99314
▁like	-7.9949
x	-7.99736
▁Sp	-7.99788
▁con	-7.9979
▁De	-8.00064
▁last	-8.00257
able	-8.00607
▁seiner	-8.00691
▁O	-8.00921
igen	-8.01193
▁me	-8.01699
0	-8.01867
N	-8.01965
▁just	-8.0258
▁Trump	-8.03328
W	-8.03409
▁them	-8.03441
▁And	-8.03514
G	-8.03539
H	-8.03616
ry	-8.03728
▁some	-8.03941
O	-8.04563
▁Im	-8.04876
▁ent	-8.05122
▁Ma	-8.05567
1	-8.05853
▁Bo	-8.06199
ner	-8.06199
▁Jahren	-8.06301
ill	-8.06573
▁da	-8.067
om	-8.06785
▁Auf	-8.06931
ische	-8.07007
▁Ab	-8.07092
ler	-8.07231
▁Jahre	-8.07251
▁says	-8.07489
und	-8.07538
▁20	-8.0779
▁Mr	-8.07872
▁wo	-8.08155
▁wieder	-8.08918
lu	-8.09066
▁gibt	-8.0913
;	-8.09155
▁if	-8.09326
ity	-8.09368
hr	-8.09379
ow	-8.09589
ian	-8.09644
ick	-8.09704
▁h	-8.09797
▁Ha	-8.09797
▁Nach	-8.09881
ok	-8.10039
bo	-8.10114
ant	-8.10224
▁immer	-8.10232
▁Zeit	-8.10296
bi	-8.10344
▁him	-8.10516
▁US	-8.10619
ger	-8.1071
▁drei	-8.11036
%	-8.11515
▁co	-8.11801
L	-8.11844
▁what	-8.12145
ft	-8.12563
ab	-8.12565
mm	-8.1267
▁This	-8.12912
▁three	-8.12936
uch	-8.12996
▁vom	-8.13404
▁percent	-8.13511
▁even	-8.13838
na	-8.14018
ber	-8.14519
▁against	-8.14716
▁dieser	-8.15789
ti	-8.16226
▁6	-8.16239
▁where	-8.16664
9	-8.16933
▁such	-8.17248
po	-8.17365
▁e	-8.17368
▁waren	-8.17381
▁Ro	-8.17465
▁uns	-8.17488
tra	-8.1759
ate	-8.17598
▁We	-8.17645
▁For	-8.17762
▁end	-8.17867
old	-8.17881
▁because	-8.18528
schaft	-8.18627
▁back	-8.19166
▁Land	-8.19466
her	-8.1983
▁should	-8.19976
op	-8.20199
▁most	-8.20347
▁seit	-8.20481
ci	-8.20597
▁work	-8.20649
▁ex	-8.20738
cht	-8.20762
end	-8.21272
8	-8.21284
ell	-8.21498
pe	-8.21585
▁Euro	-8.2159
▁sagt	-8.21591
ko	-8.21951
ste	-8.22001
▁Li	-8.22122
▁being	-8.2216
▁1	-8.22713
est	-8.22739
▁eines	-8.22924
▁million	-8.22937
aus	-8.23196
▁Z	-8.23487
▁between	-8.23692
▁zurück	-8.23946
▁our	-8.24479
▁get	-8.25266
▁dann	-8.25366
▁neue	-8.25538
▁sch	-8.26359
ling	-8.26889
di	-8.27122
▁Ka	-8.27132
▁many	-8.2729
▁Br	-8.27508
ni	-8.27592
▁before	-8.27815
▁my	-8.27942
j	-8.28249
▁government	-8.28255
▁Und	-8.28261
▁sehr	-8.28642
▁take	-8.28859
ff	-8.28926
men	-8.28983
▁well	-8.29214
▁very	-8.29446
up	-8.29517
ine	-8.29776
▁Ich	-8.30013
son	-8.30103
ight	-8.30751
),	-8.31274
▁Ra	-8.31349
▁Co	-8.31351
▁police	-8.31428
▁part	-8.31531
ting	-8.31627
bar	-8.31963
▁still	-8.32027
▁zwischen	-8.3225
▁made	-8.32267
min	-8.3252
ben	-8.32527
▁Zu	-8.32695
iz	-8.32999
chen	-8.33027
▁Polizei	-8.33078
da	-8.34116
ren	-8.34386
▁gut	-8.34467
▁On	-8.34659
ng	-8.34718
▁any	-8.34722
▁10	-8.34776
▁ihr	-8.34817
stand	-8.3507
▁d	-8.35072
ated	-8.3516
▁Aber	-8.35161
▁team	-8.35227
no	-8.35231
▁Ho	-8.35314
▁Al	-8.35343
▁diesem	-8.35346
▁see	-8.35377
▁per	-8.3552
sten	-8.35561
▁Spiel	-8.35641
▁während	-8.36174
▁Am	-8.36657
▁Man	-8.37126
▁mo	-8.37131
zeit	-8.37148
ca	-8.3719
).	-8.37221
che	-8.37423
▁New	-8.37538
00	-8.377
▁Millionen	-8.38023
▁ersten	-8.38286
▁under	-8.38357
▁alle	-8.38465
▁würde	-8.38574
▁bereits	-8.38587
é	-8.38781
V	-8.38861
ster	-8.39018
▁ob	-8.39065
go	-8.3909
ier	-8.39095
▁around	-8.39225
ted	-8.39272
▁those	-8.39374
/	-8.39518
▁long	-8.39618
icht	-8.39939
▁m	-8.4015
▁To	-8.40285
we	-8.40433
ty	-8.40598
▁world	-8.41157
▁since	-8.41157
We	-8.41316
▁already	-8.41458
▁18	-8.41486
rat	-8.41519
ige	-8.41529
gel	-8.41536
▁30	-8.4165
▁5	-8.41807
▁g	-8.41866
sp	-8.42005
isch	-8.42146
“	-8.42214
year	-8.42287
port	-8.42557
ha	-8.42561
▁b	-8.42585
▁make	-8.42715
cu	-8.42749
▁Stadt	-8.42834
▁schon	-8.43074
▁through	-8.43268
gu	-8.43325
heit	-8.43433
ek	-8.43766
▁how	-8.43785
▁Na	-8.43938
▁„	-8.44059
▁There	-8.44138
ien	-8.44244
ies	-8.44338
▁anderen	-8.44386
▁day	-8.44388
▁V	-8.44449
▁state	-8.4459
nd	-8.44624
The	-8.44628
▁country	-8.44682
▁gab	-8.44932
▁As	-8.45108
▁did	-8.45398
▁way	-8.45768
▁home	-8.4593
▁hin	-8.46642
▁unsere	-8.4671
ß	-8.46902
▁company	-8.47196
all	-8.47197
ard	-8.47315
ug	-8.47425
▁public	-8.4777
▁Mit	-8.47799
gi	-8.47879
▁ihrer	-8.48025
pa	-8.48178
per	-8.48457
▁soll	-8.48618
ec	-8.48706
and	-8.48735
▁J	-8.48833
▁sp	-8.48861
▁viele	-8.48904
the	-8.48929
▁good	-8.48968
ary	-8.49039
▁Se	-8.49112
▁15	-8.49252
▁head	-8.49298
▁At	-8.49506
▁letzten	-8.49585
är	-8.49731
▁place	-8.49849
ba	-8.50059
▁according	-8.50133
mit	-8.50573
▁Unternehmen	-8.50752
ud	-8.50854
▁Regierung	-8.51061
▁muss	-8.51115
▁number	-8.51268
▁down	-8.51477
▁andere	-8.51762
▁dur	-8.51841
ga	-8.51874
do	-8.51954
▁Lo	-8.52865
▁hand	-8.52867
▁ihn	-8.52931
▁found	-8.52977
▁Welt	-8.5322
ous	-8.53395
▁want	-8.53537
ton	-8.53683
ich	-8.53773
▁Bei	-8.53832
io	-8.54066
ance	-8.54292
▁German	-8.54417
▁viel	-8.54666
▁group	-8.54689
▁wegen	-8.54911
▁car	-8.55276
mann	-8.55439
os	-8.55485
▁EU	-8.55578
▁w	-8.55657
▁3	-8.55689
▁weiter	-8.55957
▁seinem	-8.56215
▁worden	-8.56282
lt	-8.56432
▁Eine	-8.56567
▁beim	-8.56844
▁müssen	-8.56947
ende	-8.57065
teil	-8.5707
vo	-8.57112
tor	-8.57369
▁Un	-8.57381
▁own	-8.57545
▁dis	-8.57773
sa	-8.5807
▁Me	-8.58106
▁Diese	-8.58123
ip	-8.58352
▁neuen	-8.58649
▁Jo	-8.58749
ide	-8.58779
▁market	-8.59071
▁ihren	-8.59179
▁According	-8.59404
▁etwas	-8.59819
▁same	-8.59956
▁mich	-8.59977
▁these	-8.60116
▁ohne	-8.60295
▁second	-8.6031
▁damit	-8.60346
▁much	-8.60371
pp	-8.60643
Ich	-8.60817
▁They	-8.60867
liche	-8.61142
▁Um	-8.61325
▁September	-8.61408
▁your	-8.61639
▁say	-8.61713
fer	-8.61843
U	-8.61914
bau	-8.62068
▁–	-8.62151
▁us	-8.62404
▁Pa	-8.62417
▁tr	-8.62462
tag	-8.62516
▁next	-8.62518
ac	-8.62534
▁American	-8.62654
▁think	-8.62705
▁könnte	-8.62775
halten	-8.63031
lin	-8.63104
▁'	-8.63109
▁go	-8.63347
if	-8.63376
▁come	-8.6344
▁Kinder	-8.63545
▁hier	-8.63691
▁support	-8.63829
▁Su	-8.6409
▁jedoch	-8.64396
▁Mal	-8.6441
▁50	-8.64443
tic	-8.64726
▁Ca	-8.64941
▁while	-8.64985
▁Vi	-8.65492
▁Po	-8.65526
▁la	-8.65572
▁jetzt	-8.65732
▁start	-8.658
▁Wie	-8.66163
bel	-8.6618
▁know	-8.66431
▁Mo	-8.66461
▁Über	-8.66694
▁ihm	-8.66697
▁weil	-8.66815
▁ra	-8.6707
▁may	-8.67179
▁2	-8.6724
▁Ba	-8.67271
▁pre	-8.67335
▁7	-8.6735
▁Bank	-8.67351
zi	-8.67523
▁Wir	-8.67663
▁help	-8.67682
▁show	-8.67728
,000	-8.67793
▁Ta	-8.67837
hl	-8.67859
dem	-8.67959
ierte	-8.6821
▁Minister	-8.68252
▁too	-8.68489
zahl	-8.68533
▁life	-8.68854
▁high	-8.69025
▁great	-8.69252
▁selbst	-8.69278
▁USA	-8.69386
▁off	-8.6943
rich	-8.69676
▁Bau	-8.69811
▁children	-8.69863
▁hatten	-8.70313
▁ganz	-8.70666
lichen	-8.70698
ful	-8.70775
ak	-8.70809
▁put	-8.70865
▁Teil	-8.70866
▁right	-8.70866
anz	-8.70979
▁Präsident	-8.71161
▁dieses	-8.71387
▁Germany	-8.71549
▁br	-8.71681
▁9	-8.71797
▁far	-8.72066
▁fast	-8.72116
Wir	-8.72178
▁use	-8.72374
▁report	-8.72656
sse	-8.72718
▁does	-8.7287
▁She	-8.72917
▁Di	-8.72921
▁Neu	-8.73031
▁few	-8.73526
▁12	-8.74104
▁Sa	-8.74177
▁dazu	-8.74221
▁don	-8.74314
ise	-8.74506
▁zusammen	-8.74564
▁Ende	-8.74814
que	-8.74858
gt	-8.7486
ring	-8.75132
▁four	-8.75189
▁week	-8.752
▁vier	-8.75292
▁nachdem	-8.75522
▁order	-8.7573
▁darauf	-8.75838
red	-8.76369
Die	-8.7639
▁European	-8.76563
enden	-8.76647
▁school	-8.76685
▁kommen	-8.76717
ally	-8.77146
.000	-8.77178
▁Deutschland	-8.7733
▁told	-8.77406
trag	-8.77591
▁sowie	-8.77659
▁4	-8.7782
▁El	-8.77913
ex	-8.7792
▁Bi	-8.77927
▁einige	-8.7812
berg	-8.78286
▁große	-8.78358
▁di	-8.78442
▁nun	-8.7847
fi	-8.78696
▁fünf	-8.78696
▁möglich	-8.789
▁machen	-8.78981
▁erklärte	-8.79365
auf	-8.79654
ang	-8.79902
▁must	-8.79996
▁werde	-8.8001
sche	-8.80027
▁se	-8.80153
▁without	-8.80171
▁Ru	-8.80373
▁Unter	-8.80714
▁National	-8.80718
▁best	-8.80777
▁China	-8.80856
ron	-8.81075
▁heute	-8.81213
▁po	-8.81371
bu	-8.81416
▁After	-8.81519
▁West	-8.81542
▁going	-8.81928
kommen	-8.8212
▁Haus	-8.82151
▁case	-8.82197
▁system	-8.82245
out	-8.82326
▁etwa	-8.82353
lei	-8.82474
▁city	-8.82505
▁Auch	-8.82514
halt	-8.82637
▁However	-8.82649
wei	-8.82687
▁ange	-8.82697
▁another	-8.82875
zen	-8.82957
▁sollte	-8.83037
mal	-8.83168
▁weitere	-8.83222
igung	-8.83226
▁both	-8.83341
▁Frauen	-8.8338
▁set	-8.83459
spiel	-8.83552
▁Tag	-8.83798
äu	-8.83954
los	-8.84152
ät	-8.84203
▁Ne	-8.84233
vor	-8.84261
▁du	-8.84431
ons	-8.84461
▁national	-8.84498
gang	-8.84591
▁used	-8.84623
äh	-8.84654
ness	-8.84761
▁London	-8.84949
▁Obama	-8.84949
ial	-8.84959
▁Kon	-8.8513
▁Arbeit	-8.85273
tur	-8.85275
ah	-8.85382
▁York	-8.85416
▁women	-8.85716
▁geht	-8.85749
▁stand	-8.85776
ator	-8.85936
▁cr	-8.85973
▁President	-8.86026
▁real	-8.86149
▁Car	-8.86551
▁wäre	-8.86609
▁16	-8.8667
▁building	-8.86738
▁lo	-8.86957
▁Fall	-8.86994
▁Fa	-8.87091
▁14	-8.87164
hi	-8.87236
▁Wahl	-8.87307
▁Schul	-8.87491
▁ausge	-8.87525
▁Gruppe	-8.87691
▁months	-8.88024
▁fact	-8.88231
▁Hu	-8.88271
our	-8.88338
▁erste	-8.88368
ett	-8.88428
▁name	-8.88447
▁Geld	-8.88518
recht	-8.88537
▁Bar	-8.88563
▁Art	-8.88595
▁every	-8.88613
ute	-8.88619
▁mir	-8.88864
akt	-8.88924
▁$	-8.88934
▁fest	-8.88955
▁schwer	-8.89006
▁sagen	-8.89051
▁Auto	-8.89067
net	-8.89081
nce	-8.89483
▁bekannt	-8.89717
▁Wenn	-8.89779
▁again	-8.89823
▁No	-8.89934
▁Pro	-8.89954
tin	-8.90009
▁11	-8.90017
▁able	-8.90095
▁Dr	-8.90118
ack	-8.90256
las	-8.90313
ierung	-8.90353
▁need	-8.90734
iger	-8.90789
rate	-8.91032
tter	-8.91261
▁five	-8.91599
▁Leben	-8.91613
ions	-8.91671
▁office	-8.91712
par	-8.91849
▁Schw	-8.91915
▁Mar	-8.92003
bra	-8.92354
ite	-8.92529
▁large	-8.92577
▁project	-8.92691
▁If	-8.92861
In	-8.92908
one	-8.93009
fall	-8.9311
▁sa	-8.93143
ph	-8.9321
It	-8.93551
▁law	-8.93629
heim	-8.93637
▁turn	-8.93826
▁pass	-8.93985
ure	-8.94037
▁Do	-8.94148
log	-8.94221
▁17	-8.9424
▁billion	-8.94241
led	-8.94256
▁25	-8.94279
isten	-8.94438
▁dabei	-8.945
▁lead	-8.94622
▁point	-8.94631
▁meine	-8.94685
▁com	-8.94842
▁Woche	-8.94931
mmer	-8.94958
▁former	-8.95045
by	-8.95051
▁40	-8.95318
weg	-8.95445
▁old	-8.95485
▁sondern	-8.95498
▁vergangene	-8.95499
▁left	-8.95528
ja	-8.95539
▁Ex	-8.95594
Es	-8.95648
▁Con	-8.95651
▁fa	-8.95718
ade	-8.9575
▁Mann	-8.95839
▁give	-8.95891
▁kein	-8.95931
▁companies	-8.96017
▁Gu	-8.96068
▁laut	-8.96423
bei	-8.96614
▁beiden	-8.96739
▁Frau	-8.97008
▁Leute	-8.97145
á	-8.97334
lie	-8.97689
rd	-8.97711
▁War	-8.97819
▁Für	-8.98016
▁Pe	-8.98373
wie	-8.98498
com	-8.98516
▁president	-8.98637
▁local	-8.98662
ue	-8.98807
▁Friday	-8.99187
▁davon	-8.99198
etz	-8.99231
ort	-8.99292
har	-8.99314
Z	-8.99339
▁days	-8.99469
schw	-8.99619
ture	-8.99693
▁possible	-8.99726
▁severa	-8.99795
▁13	-8.99908
▁cha	-8.99947
▁international	-8.99995
▁question	-8.99996
▁100	-9.00218
▁business	-9.00296
cy	-9.00874
▁men	-9.00901
▁Cha	-9.00988
▁Ko	-9.01213
▁Mark	-9.01322
▁follow	-9.01451
art	-9.01519
burg	-9.01572
lä	-9.01668
gg	-9.01877
▁State	-9.02061
▁live	-9.02078
ious	-9.02293
▁young	-9.02326
▁Team	-9.02391
gestellt	-9.027
▁near	-9.02733
▁become	-9.02747
▁meeting	-9.02941
▁Als	-9.02971
▁call	-9.02989
▁Milliarden	-9.03018
legen	-9.03173
▁among	-9.03202
▁record	-9.03298
ice	-9.03498
▁small	-9.03578
▁ihnen	-9.03601
▁past	-9.03634
▁clear	-9.03665
▁always	-9.03859
▁course	-9.03859
nahme	-9.03859
▁test	-9.03971
▁play	-9.04064
haus	-9.0411
▁bank	-9.04116
▁fr	-9.04223
▁Freitag	-9.04433
▁That	-9.04462
▁0	-9.04462
so	-9.04478
rie	-9.04514
▁Har	-9.04539
▁November	-9.04706
ku	-9.04751
Das	-9.04913
stitution	-9.05035
less	-9.05042
▁diesen	-9.05211
▁important	-9.05275
▁post	-9.05349
▁Thursday	-9.05561
▁Ju	-9.05596
▁night	-9.05599
▁later	-9.05667
eck	-9.05748
▁came	-9.05764
ium	-9.05776
▁ko	-9.05835
▁hard	-9.05937
nde	-9.05962
▁8	-9.06061
sti	-9.06109
▁Donnerstag	-9.06134
die	-9.06183
▁find	-9.0621
ating	-9.06218
▁später	-9.06316
▁Bundes	-9.06384
▁Ort	-9.06398
▁wichtig	-9.06725
▁return	-9.06737
▁Jahres	-9.07084
▁six	-9.07325
▁ca	-9.07338
lang	-9.07378
ress	-9.07497
pro	-9.07578
▁einfach	-9.07684
leg	-9.07839
▁Du	-9.07897
▁sehen	-9.07965
▁seien	-9.08065
▁includ	-9.08229
▁lot	-9.08461
▁called	-9.08486
ile	-9.08499
▁ta	-9.0855
hy	-9.08551
tal	-9.08559
▁inter	-9.08644
ov	-9.08692
way	-9.08746
ical	-9.09007
▁Kr	-9.09037
itz	-9.09053
▁decision	-9.09054
▁future	-9.09055
▁United	-9.09055
almost	-9.09058
▁close	-9.09258
▁form	-9.09263
▁Entscheidung	-9.09351
▁until	-9.09356
▁Mitarbeiter	-9.09358
▁things	-9.0939
▁ba	-9.094
▁Europa	-9.09405
▁announced	-9.09437
cker	-9.09471
▁konnte	-9.09605
▁Sport	-9.09642
▁political	-9.09655
▁Ar	-9.09734
▁Her	-9.0987
▁half	-9.09949
ish	-9.09991
▁dort	-9.1
treten	-9.10048
▁Fi	-9.10177
du	-9.1022
▁mehrere	-9.10227
▁something	-9.10248
▁ago	-9.10289
bild	-9.10513
▁Weg	-9.1059
▁pay	-9.10679
▁party	-9.10786
▁ro	-9.10818
▁Clinton	-9.10848
fl	-9.10872
▁area	-9.10938
▁town	-9.10943
▁Not	-9.10989
▁welche	-9.11155
▁least	-9.11166
ep	-9.11283
▁weit	-9.1131
▁event	-9.11339
▁better	-9.11547
▁Bu	-9.1156
▁house	-9.11643
les	-9.1166
▁particular	-9.11757
▁level	-9.11758
ev	-9.11865
▁sogar	-9.11891
▁Mu	-9.1191
▁interest	-9.11946
▁vote	-9.11949
▁denen	-9.11986
▁erst	-9.11988
punkt	-9.12032
▁Kom	-9.12058
mission	-9.12154
▁l	-9.12172
▁würden	-9.12193
▁1.	-9.12261
▁San	-9.12318
sh	-9.12331
▁gehen	-9.1235
▁reason	-9.12369
▁reported	-9.12429
▁taken	-9.12756
essen	-9.12797
▁Europe	-9.12923
▁großen	-9.12934
fu	-9.12947
▁today	-9.1307
▁away	-9.13138
▁All	-9.13233
▁look	-9.13287
ism	-9.13297
▁wollen	-9.13318
▁run	-9.13411
▁sh	-9.13572
nden	-9.13809
▁allem	-9.13828
▁win	-9.13927
▁risk	-9.13947
form	-9.141
▁game	-9.14111
▁Washington	-9.14223
▁train	-9.14344
▁lassen	-9.14499
stellung	-9.14551
▁erhalten	-9.14577
ina	-9.14617
fahren	-9.14617
▁You	-9.14683
▁each	-9.14698
▁Mai	-9.14746
▁Ad	-9.1477
▁Markt	-9.14779
igkeit	-9.14867
ble	-9.14885
▁besser	-9.14894
ierten	-9.15163
▁whether	-9.15167
▁Ri	-9.15347
▁Ent	-9.15353
▁sicher	-9.15359
▁le	-9.15366
wi	-9.1541
▁tri	-9.15435
▁hav	-9.15436
▁different	-9.15479
▁Dollar	-9.15492
▁hätte	-9.15508
▁lange	-9.15512
ey	-9.15547
▁really	-9.15548
eln	-9.15573
gar	-9.1559
▁Uhr	-9.1559
▁refugees	-9.15626
▁line	-9.15746
ock	-9.15758
off	-9.15809
dy	-9.15837
▁ihrem	-9.16057
ität	-9.16093
satz	-9.16107
▁Geschichte	-9.16114
▁2012	-9.16123
ford	-9.16357
▁pa	-9.1636
▁Juli	-9.16391
▁Bericht	-9.16425
wo	-9.16545
▁result	-9.16706
▁Sunday	-9.16751
▁Berlin	-9.16752
▁however	-9.16766
▁With	-9.1682
eu	-9.1685
▁Landes	-9.17074
▁open	-9.17112
▁offer	-9.17166
▁bin	-9.17167
▁Hand	-9.17328
▁August	-9.17393
▁money	-9.17404
▁weniger	-9.17468
side	-9.17474
▁ging	-9.17485
mer	-9.17497
▁kommt	-9.1755
fü	-9.17702
▁hope	-9.17809
▁example	-9.18039
▁Personen	-9.18103
ili	-9.18108
▁tun	-9.1811
▁month	-9.18247
St	-9.18336
▁rund	-9.18347
hin	-9.18386
▁here	-9.18389
▁stehen	-9.184
elle	-9.18402
▁steht	-9.18465
▁va	-9.186
ivi	-9.18612
▁sechs	-9.18696
▁Ja	-9.18716
tu	-9.18783
▁letzte	-9.18811
▁Go	-9.18955
wert	-9.18979
▁added	-9.18985
▁z	-9.18996
reich	-9.19013
▁Sonntag	-9.19016
▁family	-9.19016
▁countries	-9.19021
▁never	-9.19034
▁hinzu	-9.19077
wand	-9.19159
▁statement	-9.19162
▁got	-9.19211
lar	-9.19218
▁Lu	-9.19299
▁Flüchtlinge	-9.19344
▁gr	-9.19354
▁less	-9.19402
▁sollen	-9.19499
con	-9.19556
▁kam	-9.19614
▁Grund	-9.19727
▁weiß	-9.1973
tern	-9.19794
▁face	-9.19797
▁Je	-9.198
▁side	-9.19978
ship	-9.20021
▁Staats	-9.20064
ual	-9.20166
za	-9.20198
og	-9.20232
▁alles	-9.20325
▁60	-9.20406
▁change	-9.2067
jährige	-9.20772
▁One	-9.20875
▁Tr	-9.20875
mar	-9.209
▁economic	-9.20999
▁Gegen	-9.21196
des	-9.21313
▁dafür	-9.2135
▁big	-9.21405
▁hinter	-9.21483
stellen	-9.2157
▁Finanz	-9.21656
▁South	-9.21671
▁schnell	-9.21674
▁nächsten	-9.21876
▁believe	-9.21929
▁Ki	-9.22037
schen	-9.2208
50	-9.2235
▁When	-9.22356
▁lang	-9.22389
air	-9.22483
▁Mil	-9.22532
▁financial	-9.22683
▁view	-9.22687
sehen	-9.22729
▁attack	-9.22844
▁Wer	-9.22847
▁stark	-9.22851
▁person	-9.23007
▁won	-9.23096
▁once	-9.2319
▁Ziel	-9.23413
▁club	-9.23559
▁Männer	-9.23707
▁campaign	-9.23707
▁information	-9.23708
rin	-9.23783
▁doch	-9.23803
cent	-9.23842
▁court	-9.24054
▁sc	-9.24232
▁experience	-9.24395
▁social	-9.24397
jo	-9.24424
ran	-9.2444
part	-9.24553
ast	-9.24611
haft	-9.24896
▁Verein	-9.24924
line	-9.25159
ehr	-9.2525
▁power	-9.25273
▁bi	-9.25303
▁Zahl	-9.25452
▁Problem	-9.25636
▁hätten	-9.25755
▁health	-9.2579
▁darüber	-9.25792
▁control	-9.25797
▁plan	-9.25841
mittel	-9.26335
▁deutsche	-9.26419
▁increase	-9.26425
alt	-9.26544
▁Frage	-9.26565
ative	-9.26704
▁pri	-9.2687
▁wants	-9.26873
▁gegenüber	-9.26874
▁meisten	-9.26905
▁road	-9.27247
▁musste	-9.27256
▁Paris	-9.2742
▁2008	-9.27573
▁music	-9.27593
▁Tor	-9.27596
▁share	-9.27604
act	-9.27663
gesetzt	-9.27741
ette	-9.27801
▁Partei	-9.2782
ries	-9.28008
iff	-9.2803
▁wenig	-9.28069
▁Arbeits	-9.28128
▁aufge	-9.28139
▁Ihre	-9.28285
▁einmal	-9.28307
▁Bad	-9.28312
▁fire	-9.28556
▁star	-9.28627
▁Wednesday	-9.28629
▁2015	-9.28641
▁Ga	-9.28729
▁abge	-9.28821
▁Mittwoch	-9.2899
▁service	-9.29137
▁wanted	-9.29234
▁goal	-9.29279
▁Haupt	-9.29346
▁early	-9.29353
▁wirklich	-9.29354
▁behind	-9.29357
under	-9.29358
▁cent	-9.29373
▁Wi	-9.29387
ete	-9.29444
▁Pi	-9.29473
▁free	-9.2951
▁mal	-9.29583
▁statt	-9.29729
▁genau	-9.29738
▁situation	-9.29853
▁gra	-9.29897
▁gewesen	-9.30126
wahl	-9.30136
▁Paul	-9.30296
for	-9.30341
▁current	-9.30365
qui	-9.30404
▁Internet	-9.30455
▁action	-9.30609
▁region	-9.30613
▁21	-9.30658
ors	-9.30687
▁BBC	-9.30815
▁solche	-9.30844
▁gemacht	-9.3085
▁director	-9.30877
▁app	-9.30893
▁final	-9.31085
▁third	-9.31184
▁room	-9.31269
▁geben	-9.31383
J	-9.31437
▁Tuesday	-9.31554
▁University	-9.31554
▁little	-9.31554
uck	-9.31635
▁Staat	-9.31699
▁ja	-9.31832
▁private	-9.31926
▁gerade	-9.31932
▁Groß	-9.31933
▁Mittel	-9.32093
▁total	-9.32233
▁thousand	-9.32299
han	-9.32327
▁Sta	-9.32359
▁North	-9.32365
▁within	-9.32375
unter	-9.32441
▁general	-9.32683
▁2014	-9.32684
stieg	-9.32743
▁due	-9.33027
▁recht	-9.33191
▁Doch	-9.33208
▁hold	-9.33226
▁moment	-9.33234
▁went	-9.33262
keit	-9.33423
▁Gericht	-9.33444
▁leben	-9.33496
▁front	-9.33597
▁land	-9.33775
▁dessen	-9.33778
res	-9.33814
▁Pol	-9.33893
▁früher	-9.33899
▁members	-9.33904
▁deal	-9.34063
▁points	-9.34066
king	-9.34076
▁light	-9.34116
▁Tri	-9.34119
geben	-9.34137
▁military	-9.34186
▁v	-9.3426
▁full	-9.34365
day	-9.34523
▁%	-9.34576
▁Gra	-9.346
markt	-9.34631
▁Meinung	-9.347
voll	-9.34795
▁Laut	-9.34892
▁Michael	-9.34951
▁Saturday	-9.34951
▁media	-9.34963
▁Preis	-9.34978
ständig	-9.35068
▁election	-9.35168
▁Russian	-9.35194
▁talk	-9.3521
▁given	-9.35242
▁World	-9.35335
▁vi	-9.35367
▁macht	-9.35382
▁fall	-9.35612
▁Anfang	-9.35778
▁Or	-9.35869
▁act	-9.35961
▁keep	-9.36111
▁death	-9.36121
▁feel	-9.362
minister	-9.3621
▁rate	-9.36329
▁allerdings	-9.36362
ica	-9.36383
▁CDU	-9.36498
▁staff	-9.36499
▁water	-9.365
träge	-9.36509
bor	-9.3651
▁short	-9.36518
rei	-9.36547
ction	-9.36573
▁demand	-9.36601
erung	-9.36685
▁Staaten	-9.36746
▁positive	-9.36889
▁border	-9.3689
▁Mon	-9.36891
▁Projekt	-9.37013
▁2011	-9.37293
▁th	-9.37315
bach	-9.37352
▁working	-9.3737
▁Den	-9.37506
▁Dienstag	-9.37675
▁liegt	-9.37675
val	-9.37685
▁taking	-9.37689
griff	-9.37719
▁nie	-9.37776
▁Plan	-9.37827
▁heraus	-9.37859
▁book	-9.37882
▁gleich	-9.37907
▁könnten	-9.37919
▁John	-9.38047
▁Studie	-9.38072
▁2010	-9.38084
rank	-9.3809
ana	-9.38145
▁top	-9.38231
▁Herr	-9.38336
Jährige	-9.38467
▁district	-9.38467
zer	-9.38468
▁Wa	-9.38487
ou	-9.38488
▁why	-9.38496
▁sollten	-9.38606
▁Union	-9.38638
ai	-9.38675
setzen	-9.38715
▁ri	-9.38834
▁difficult	-9.38865
▁ebenfalls	-9.38865
▁Nord	-9.38954
▁list	-9.39049
geb	-9.39055
▁legal	-9.39095
▁ru	-9.391
▁special	-9.3913
▁Straße	-9.39224
▁continue	-9.39225
ott	-9.39291
▁euros	-9.39292
handel	-9.3946
rang	-9.39506
▁je	-9.39548
ham	-9.39572
▁official	-9.3964
▁together	-9.39667
▁Monat	-9.39699
plan	-9.39709
hof	-9.40016
schlag	-9.40044
▁2016	-9.40079
▁klar	-9.40136
▁Gi	-9.40163
Be	-9.40198
▁Min	-9.40246
ob	-9.40351
▁Facebook	-9.40475
▁study	-9.40475
▁Monday	-9.40484
ified	-9.40506
erweise	-9.40531
▁bring	-9.40533
▁trade	-9.4062
▁bevor	-9.40636
▁23	-9.40642
▁su	-9.40667
raum	-9.40711
▁crisis	-9.40881
▁Samstag	-9.40882
▁longer	-9.40889
ker	-9.40919
▁erklärt	-9.41153
zug	-9.41181
▁authorities	-9.41293
feld	-9.41351
▁care	-9.41518
▁bereit	-9.41643
▁frei	-9.41652
▁though	-9.41695
▁match	-9.417
chef	-9.4177
▁Platz	-9.41885
▁Gesetz	-9.42076
▁Tra	-9.42153
▁veröffentlicht	-9.42524
▁hospital	-9.42524
▁Montag	-9.42549
▁27	-9.42618
ziel	-9.42893
▁across	-9.42939
▁Donald	-9.42939
▁block	-9.43036
qu	-9.43221
bb	-9.4332
▁fee	-9.43327
▁rest	-9.43348
▁Beispiel	-9.43392
rom	-9.43445
ellen	-9.43493
ging	-9.43592
▁Süd	-9.43667
▁asked	-9.43668
▁strong	-9.43775
▁global	-9.43775
▁process	-9.4378
gericht	-9.43816
▁hit	-9.43871
▁Alter	-9.44037
▁offen	-9.4405
▁Familie	-9.44061
▁What	-9.44102
▁consider	-9.4416
▁addition	-9.44185
hu	-9.4426
wir	-9.44284
▁zeigt	-9.44411
▁neu	-9.44461
▁present	-9.44588
▁further	-9.44616
▁season	-9.44627
▁problem	-9.44687
▁provide	-9.44733
tlich	-9.44738
▁Zwei	-9.4483
ix	-9.44912
▁gute	-9.44948
▁morning	-9.4504
▁killed	-9.45041
stein	-9.45172
▁driver	-9.45345
▁sub	-9.45365
▁black	-9.45477
▁2009	-9.4549
▁Wasser	-9.45492
▁2007	-9.45502
▁Martin	-9.45502
rap	-9.45587
rad	-9.45611
▁tax	-9.45703
time	-9.45705
zeichnet	-9.4584
wort	-9.45977
ised	-9.46
▁move	-9.46009
meter	-9.46129
tritt	-9.46145
▁research	-9.46241
▁love	-9.46296
▁Frankfurt	-9.46322
▁himself	-9.46322
▁Was	-9.46333
eb	-9.46338
▁wollte	-9.46375
▁fight	-9.46376
▁Au	-9.4654
▁Pla	-9.46545
▁voll	-9.4666
▁versch	-9.46771
gehen	-9.46781
ahn	-9.46804
▁daran	-9.46921
aut	-9.46941
▁mis	-9.47011
mark	-9.47042
▁minister	-9.47078
lief	-9.4715
lock	-9.47151
▁Even	-9.47209
▁position	-9.47288
ay	-9.47445
▁recent	-9.47569
▁travel	-9.47594
▁2013	-9.47621
▁Höhe	-9.47621
▁security	-9.47621
▁deutlich	-9.47622
▁Film	-9.47628
▁role	-9.47842
▁saying	-9.47972
stat	-9.48008
▁low	-9.48035
▁Czech	-9.48057
▁period	-9.48058
▁film	-9.4806
avi	-9.48147
▁einzige	-9.4816
▁step	-9.48168
cal	-9.48211
▁evening	-9.48295
▁SPD	-9.48314
▁States	-9.48362
▁Oktober	-9.48496
▁Dar	-9.48514
▁Rolle	-9.48548
ani	-9.4855
ists	-9.48706
▁remain	-9.48762
blick	-9.48779
▁schlecht	-9.4881
ged	-9.48814
innen	-9.48864
▁normal	-9.48929
▁Während	-9.48936
stadt	-9.48938
▁Hin	-9.49065
über	-9.49135
▁design	-9.49156
▁allow	-9.49198
ismus	-9.49224
▁major	-9.49348
▁contract	-9.4938
bü	-9.49384
platz	-9.49399
▁Green	-9.494
assen	-9.49403
▁yet	-9.49415
abend	-9.49479
▁woman	-9.49526
▁Gold	-9.4959
lay	-9.49676
▁along	-9.49736
▁personal	-9.49768
▁happen	-9.49813
▁Olympic	-9.49823
▁Straf	-9.4986
▁Republican	-9.49883
▁hours	-9.49916
▁online	-9.50178
20	-9.50189
▁Federal	-9.50271
▁Some	-9.50299
▁Pr	-9.50311
▁gehört	-9.50406
▁Fe	-9.50591
▁finden	-9.50641
▁issue	-9.50685
▁met	-9.50755
▁might	-9.50809
▁Fed	-9.50926
system	-9.51065
▁price	-9.51156
▁Musik	-9.51175
▁ten	-9.51187
▁agreement	-9.512
unt	-9.5138
▁exist	-9.51398
▁sign	-9.51458
▁Kunden	-9.51524
▁David	-9.51622
▁zwar	-9.51632
wing	-9.51693
▁junge	-9.51722
▁24	-9.51739
▁means	-9.51752
▁führte	-9.51796
werk	-9.51942
deck	-9.51984
▁centre	-9.51989
▁capital	-9.52076
▁Medien	-9.52078
▁foreign	-9.52079
▁often	-9.522
org	-9.52213
▁Mc	-9.52287
▁ju	-9.52415
dorf	-9.52417
▁Wohnung	-9.52445
▁human	-9.52533
▁matter	-9.52534
▁enough	-9.52553
ough	-9.52669
▁eigenen	-9.52699
▁times	-9.52932
▁Gemeinde	-9.52967
ski	-9.53024
treib	-9.53041
▁Arm	-9.53104
▁East	-9.53106
▁explained	-9.53164
▁cost	-9.53329
▁expected	-9.53369
stelle	-9.53422
▁Court	-9.53455
ny	-9.53505
▁May	-9.53535
▁teilte	-9.53569
▁idea	-9.53584
based	-9.53671
▁zehn	-9.53777
▁sw	-9.53876
▁England	-9.53915
Sch	-9.53926
▁Wochen	-9.53942
▁keinen	-9.53945
▁Sieg	-9.53988
Ge	-9.5406
▁comment	-9.54102
ball	-9.54163
▁Mor	-9.54252
pol	-9.5438
▁Ben	-9.54405
▁Mannschaft	-9.54431
▁Frei	-9.54462
▁known	-9.54783
▁operation	-9.54788
▁Thomas	-9.54847
▁account	-9.54847
▁themselves	-9.54847
▁House	-9.54867
vision	-9.54941
▁Namen	-9.54944
enz	-9.5495
▁comes	-9.54965
nach	-9.55013
▁Russia	-9.5502
tri	-9.55098
▁seen	-9.551
▁making	-9.55318
▁Richter	-9.55319
▁dar	-9.55321
tür	-9.55333
▁site	-9.55338
genommen	-9.55473
▁General	-9.55529
▁data	-9.55535
▁Fahr	-9.55536
▁Behörden	-9.55788
pass	-9.55805
▁officials	-9.5582
▁Wort	-9.55952
▁gar	-9.55991
▁air	-9.56053
of	-9.56115
preis	-9.56139
▁Entwicklung	-9.56262
hose	-9.56273
▁space	-9.56292
istische	-9.56315
▁Nor	-9.56407
?"	-9.56415
▁Form	-9.56692
▁Rück	-9.56717
▁link	-9.56778
▁Jan	-9.56867
▁Ku	-9.56993
▁Amt	-9.571
ctor	-9.57122
▁weiterhin	-9.57247
schloss	-9.5731
▁ever	-9.57368
▁29	-9.57383
eine	-9.57414
▁leader	-9.5744
dienst	-9.57441
utz	-9.57472
▁Vorsitzende	-9.57514
ities	-9.57561
▁success	-9.57681
▁His	-9.57688
▁International	-9.57699
▁plant	-9.57703
▁verletzt	-9.57735
▁anti	-9.57858
▁fügte	-9.57874
▁started	-9.5791
▁Recht	-9.57966
▁canno	-9.5802
▁lost	-9.58043
▁Park	-9.5806
▁Sicherheit	-9.58168
frage	-9.58179
▁Möglichkeit	-9.58181
▁leave	-9.58181
▁seven	-9.58186
▁press	-9.58328
▁Monaten	-9.58605
gleich	-9.5864
▁visit	-9.58658
▁economy	-9.58666
▁Krieg	-9.58669
▁rather	-9.5867
▁Bl	-9.58731
▁pe	-9.5894
▁certain	-9.5896
▁einge	-9.59001
▁Bürger	-9.59149
▁Wähler	-9.59154
rn	-9.59195
ley	-9.59292
▁Che	-9.59305
plo	-9.5935
▁brought	-9.59644
▁board	-9.59848
▁stop	-9.59871
▁teil	-9.60094
▁Y	-9.60118
▁drug	-9.60137
▁hoch	-9.60148
▁concern	-9.60176
▁Straßen	-9.60188
▁charge	-9.60217
del	-9.60272
▁machte	-9.60302
▁Roman	-9.60392
▁Reihe	-9.60428
▁Hause	-9.6043
▁Spieler	-9.60433
▁Lebens	-9.60437
▁League	-9.60441
ray	-9.60509
▁suggest	-9.60632
gruppe	-9.60632
▁Regierungs	-9.60635
rufen	-9.60691
▁200	-9.60697
▁öffentliche	-9.60702
je	-9.60737
▁Peter	-9.60777
vie	-9.60949
▁others	-9.61033
▁zweiten	-9.61085
▁policy	-9.61129
▁russische	-9.61132
▁fi	-9.61211
Ver	-9.61216
lassen	-9.61267
▁Monate	-9.61292
▁Thema	-9.61297
▁cases	-9.61298
▁eher	-9.61323
▁Iran	-9.61381
▁Seite	-9.61451
▁add	-9.61473
Sie	-9.6148
ischer	-9.6152
▁Russland	-9.61629
▁buy	-9.61638
chten	-9.61645
▁Col	-9.61662
▁France	-9.61674
qual	-9.61713
fang	-9.61754
▁Jung	-9.61776
▁Par	-9.61832
▁gesagt	-9.62027
▁Rat	-9.62032
ments	-9.62059
▁Zukunft	-9.62146
▁thought	-9.62147
▁Stunden	-9.62203
▁gas	-9.62219
ible	-9.6222
▁35	-9.62277
kehr	-9.62292
▁plans	-9.62354
find	-9.62505
▁member	-9.62506
▁halten	-9.62516
▁association	-9.62637
fälle	-9.62638
lic	-9.62704
▁coming	-9.62745
▁aufgrund	-9.62791
▁Sprecher	-9.62828
▁regional	-9.62919
▁anzu	-9.6296
schein	-9.63025
▁states	-9.6305
roll	-9.63076
▁British	-9.63152
▁Bayern	-9.63175
lag	-9.63247
▁europäische	-9.63262
▁Weise	-9.63296
▁Buch	-9.63363
▁ha	-9.63411
▁Abend	-9.63429
▁zufolge	-9.63474
▁likely	-9.63631
▁nothing	-9.63677
▁leicht	-9.63702
ward	-9.63922
ize	-9.6413
▁kurz	-9.64146
▁hundred	-9.64168
▁similar	-9.64168
▁Islam	-9.64168
▁Fußball	-9.64172
▁Hotel	-9.64174
▁Juni	-9.64217
spekt	-9.64331
war	-9.64332
▁Meter	-9.64393
eva	-9.64417
▁age	-9.64462
▁let	-9.64502
▁students	-9.64547
▁cut	-9.64552
over	-9.64593
▁protest	-9.64605
▁Qu	-9.64609
▁child	-9.64651
▁services	-9.64668
▁Situation	-9.64683
▁Per	-9.64695
einander	-9.64714
▁Ni	-9.64802
nehmen	-9.64822
ever	-9.64871
▁Em	-9.65041
▁Wirtschaft	-9.65059
▁Frank	-9.65097
▁Geschäft	-9.6516
▁document	-9.65201
▁French	-9.65202
▁street	-9.65202
▁wissen	-9.65203
▁höher	-9.65217
▁obwohl	-9.65223
▁stay	-9.65253
▁allen	-9.65305
▁Sam	-9.65332
▁90	-9.65504
az	-9.65561
▁class	-9.65657
▁Australia	-9.65722
▁investigation	-9.65722
▁traffic	-9.65724
▁history	-9.65724
▁phone	-9.65744
▁reach	-9.65787
▁Cor	-9.65823
This	-9.65838
▁Untersuchung	-9.6585
▁Lage	-9.65856
▁Com	-9.65901
▁Ol	-9.65907
▁model	-9.65952
▁28	-9.65958
came	-9.65983
▁versucht	-9.66029
▁eigene	-9.66099
stoff	-9.66127
mate	-9.66131
▁wohl	-9.66136
führung	-9.66193
uff	-9.66203
▁effect	-9.66208
fri	-9.6624
▁construction	-9.66263
▁Kosten	-9.66309
▁eight	-9.66418
▁Ch	-9.66426
qua	-9.66427
arm	-9.66579
▁führen	-9.66716
▁tour	-9.6673
▁done	-9.66746
▁April	-9.66772
▁quarter	-9.66772
▁Street	-9.66773
ktion	-9.66775
▁Vereinigte	-9.66785
▁sieht	-9.66805
▁Tage	-9.66869
▁late	-9.66885
ost	-9.66909
rant	-9.67001
An	-9.67019
last	-9.67213
ere	-9.67239
▁Militär	-9.673
▁food	-9.67302
▁bleiben	-9.67308
▁body	-9.67365
▁Sommer	-9.67382
▁jeden	-9.67437
uz	-9.67443
▁mein	-9.67497
▁Region	-9.67499
▁chief	-9.6756
▁spielt	-9.67581
▁main	-9.67665
▁Hol	-9.67753
isiert	-9.67768
druck	-9.67781
▁energy	-9.67833
▁injured	-9.67833
▁2017	-9.67833
▁Gewalt	-9.67833
agen	-9.67977
▁thing	-9.68009
ants	-9.68055
▁players	-9.68141
▁einigen	-9.68228
▁Daten	-9.68327
Q	-9.68357
▁Unterstützung	-9.68368
▁Twitter	-9.68368
▁erwartet	-9.68368
prüf	-9.68368
▁500	-9.68373
▁development	-9.68417
▁Wirtschafts	-9.68516
▁Ost	-9.68628
mut	-9.68644
ütz	-9.68666
▁read	-9.68738
ign	-9.68738
▁didn	-9.68859
▁TV	-9.68887
▁Wert	-9.69057
▁Nicht	-9.69072
▁Start	-9.69122
▁Zeitung	-9.69138
▁indem	-9.69219
▁Nacht	-9.69225
▁22	-9.69317
▁conditions	-9.69431
▁Seit	-9.69464
▁employees	-9.69465
chtet	-9.69605
gabe	-9.69898
▁cover	-9.69932
schließen	-9.69986
▁speak	-9.6999
▁break	-9.69991
▁majority	-9.70028
▁station	-9.70037
▁Bern	-9.70045
▁Israel	-9.70267
▁Wo	-9.70334
▁July	-9.70356
▁ehemalige	-9.70391
▁Präsidenten	-9.70403
tive	-9.70438
▁Kampf	-9.70536
▁October	-9.70536
▁zeigen	-9.70547
gelegt	-9.70628
▁2.	-9.70851
▁könne	-9.70951
▁ließ	-9.71007
▁Central	-9.71085
▁Richtung	-9.71086
lichkeit	-9.71088
▁acht	-9.71092
nken	-9.71138
sprech	-9.71139
▁tell	-9.71171
ient	-9.71266
frei	-9.71288
▁recently	-9.7133
issen	-9.71393
▁More	-9.71494
▁Länder	-9.71532
▁led	-9.71533
▁using	-9.71586
▁bar	-9.71609
▁Bild	-9.71635
▁Gesellschaft	-9.71638
▁Kopf	-9.7164
▁fear	-9.71646
▁erreicht	-9.71657
ory	-9.7172
▁expect	-9.71734
ieß	-9.71746
ily	-9.71807
▁Ros	-9.71819
wohl	-9.71846
▁bekommen	-9.71863
▁field	-9.71874
▁Pat	-9.71874
▁bl	-9.72059
▁bad	-9.72084
▁walk	-9.72197
▁bleibt	-9.72198
▁living	-9.72199
▁performance	-9.72206
▁Black	-9.7221
▁Umfrage	-9.72215
star	-9.72292
win	-9.72345
euer	-9.72428
He	-9.72486
erhalb	-9.72528
cor	-9.72548
▁previous	-9.72558
Er	-9.72601
app	-9.7263
ability	-9.72661
▁interview	-9.72752
▁prevent	-9.72753
▁besten	-9.72887
▁poll	-9.72925
▁coach	-9.72954
▁Von	-9.73042
▁looking	-9.73131
▁received	-9.73162
▁Gen	-9.73245
▁Red	-9.73289
▁Ukraine	-9.73314
▁industry	-9.73314
▁regard	-9.73315
▁Opfer	-9.73329
▁summer	-9.73339
▁Augen	-9.73377
▁Familien	-9.73492
▁Mitglieder	-9.73497
▁bringen	-9.73536
zig	-9.73537
▁einzu	-9.73821
▁seines	-9.73836
ale	-9.73855
▁getötet	-9.73879
▁bedeutet	-9.73879
▁amount	-9.73879
▁Protest	-9.73885
▁Mutter	-9.73905
▁Kind	-9.7394
30	-9.73945
,5	-9.73997
▁race	-9.74091
führen	-9.74125
▁Flug	-9.74163
▁45	-9.74194
▁red	-9.74213
▁zweite	-9.74243
arbeiten	-9.74333
▁America	-9.74347
▁gebracht	-9.74349
▁Parlament	-9.74447
▁Folge	-9.74457
▁Steuer	-9.74501
folge	-9.7453
▁konnten	-9.74531
▁auszu	-9.74642
▁Mehr	-9.74645
rust	-9.74667
0,000	-9.74673
▁Val	-9.74674
wart	-9.74723
▁include	-9.74741
▁na	-9.74764
steuer	-9.74795
▁jeder	-9.74807
▁Rund	-9.74978
▁accept	-9.75018
▁trotz	-9.75018
▁watch	-9.75019
▁damage	-9.75021
▁firm	-9.75022
▁Lamb	-9.75023
bank	-9.75109
▁sieben	-9.75187
▁arm	-9.75213
▁weeks	-9.7522
▁Stelle	-9.75323
rew	-9.7546
▁Stein	-9.75495
▁available	-9.75593
▁häufig	-9.75593
▁illegal	-9.75593
straße	-9.75594
▁Durch	-9.75594
▁Organisation	-9.75595
▁customers	-9.75618
▁voters	-9.75625
▁ganze	-9.7563
▁Cup	-9.75884
met	-9.76015
▁Chef	-9.76079
▁Informationen	-9.7611
▁detail	-9.76178
▁Now	-9.76314
▁Gas	-9.76416
▁Bereich	-9.76503
▁played	-9.7653
▁Fest	-9.76553
▁rise	-9.76566
▁Bel	-9.76572
▁Fu	-9.7658
schau	-9.7661
▁Fla	-9.76709
▁represent	-9.76743
behörde	-9.76752
▁accident	-9.76752
▁Brown	-9.76755
▁Since	-9.76756
▁shot	-9.76758
▁Putin	-9.76766
▁pla	-9.76797
▁hinaus	-9.76857
weit	-9.76911
▁began	-9.76939
▁Ober	-9.76976
▁derzeit	-9.76985
ministerium	-9.77135
▁kleine	-9.77223
▁higher	-9.7733
▁Großbritannien	-9.77337
▁earlier	-9.77337
▁Krankenhaus	-9.77347
▁gestern	-9.7735
▁outside	-9.77466
▁cause	-9.77526
ong	-9.77567
länder	-9.77568
▁eye	-9.77623
▁Reise	-9.77674
▁Wal	-9.7771
▁Dinge	-9.77886
gegeben	-9.77897
▁Führung	-9.77925
▁budget	-9.77925
▁persönlich	-9.77925
▁everything	-9.77926
▁defend	-9.77927
▁manager	-9.77929
▁Fahrzeug	-9.77932
▁representative	-9.77935
▁profit	-9.77949
▁ground	-9.77962
▁chance	-9.77963
▁Gar	-9.77972
▁whole	-9.77976
▁Vergleich	-9.77984
▁friends	-9.77996
▁spielen	-9.78016
▁Geschäfts	-9.78121
▁cell	-9.78131
▁allein	-9.78138
▁UK	-9.78152
▁stellen	-9.78182
▁image	-9.782
▁31	-9.78227
▁sell	-9.78328
uß	-9.78395
▁nahe	-9.78424
▁Alle	-9.78484
▁Dis	-9.78514
▁competition	-9.78517
▁Syria	-9.78518
▁focus	-9.78518
▁judge	-9.7852
äre	-9.78604
chtig	-9.78791
▁Gl	-9.78841
▁Nation	-9.78992
▁direkt	-9.78998
▁Studenten	-9.79
▁Afghanistan	-9.79112
▁civil	-9.79113
▁ähnlich	-9.79113
hole	-9.79116
▁Punkte	-9.79121
▁growth	-9.79157
▁bit	-9.79172
▁Kontrolle	-9.79178
▁Erfolg	-9.7918
weisen	-9.7925
tan	-9.79582
▁trying	-9.79627
▁gew	-9.79627
▁Saison	-9.79712
▁richtig	-9.79722
▁areas	-9.79728
▁Bahn	-9.79823
▁carry	-9.79825
nov	-9.79834
▁Post	-9.79901
▁white	-9.79921
▁Raum	-9.79955
▁dead	-9.80106
▁früh	-9.80203
▁leg	-9.80232
stehen	-9.80242
▁stellt	-9.80243
weise	-9.8029
▁gefunden	-9.80296
▁threat	-9.80308
▁gemeinsam	-9.80314
▁opinion	-9.80314
▁Volk	-9.80315
▁itself	-9.80316
▁Druck	-9.80337
schuss	-9.80348
▁Luft	-9.80374
▁brand	-9.80396
pite	-9.80402
▁hervor	-9.80461
▁involved	-9.80467
▁aller	-9.80574
▁reports	-9.8064
ava	-9.80666
miss	-9.80681
▁complete	-9.80727
▁abzu	-9.80825
▁news	-9.80864
▁Körper	-9.8092
▁newspaper	-9.8092
▁target	-9.8092
▁Programm	-9.8092
politik	-9.8092
▁value	-9.80926
▁Robert	-9.80968
aktion	-9.80985
▁doing	-9.81033
▁Rot	-9.81059
see	-9.81104
▁invest	-9.8118
▁try	-9.81207
▁nehmen	-9.81395
▁öffentlich	-9.81444
put	-9.81457
zeug	-9.81527
▁bestimmt	-9.8153
▁girl	-9.8153
▁Asbest	-9.8153
▁football	-9.81535
▁entire	-9.81535
▁series	-9.81558
tik	-9.81558
▁Ergebnis	-9.8156
▁flight	-9.81563
▁Schritt	-9.81569
▁Spitze	-9.81572
▁movement	-9.8163
▁June	-9.81666
arbeit	-9.81739
▁access	-9.81803
▁Kü	-9.8182
ized	-9.81867
▁mark	-9.81868
ziehen	-9.81912
▁problems	-9.81959
▁player	-9.81993
▁Georg	-9.82014
fest	-9.82115
▁Energie	-9.82143
▁especially	-9.82143
▁regulat	-9.82144
▁Nähe	-9.82146
▁north	-9.82147
▁beginning	-9.8215
▁Police	-9.82164
▁groß	-9.82411
▁vielen	-9.82475
▁arbeiten	-9.82523
▁City	-9.82523
▁Fo	-9.82567
lauf	-9.82672
Da	-9.82688
▁protect	-9.82691
▁Association	-9.8276
▁Universität	-9.8276
▁message	-9.82761
▁video	-9.82761
▁Botschaft	-9.82762
▁Video	-9.82762
▁80	-9.82778
▁boy	-9.82782
▁Tod	-9.82889
▁Kar	-9.82901
gegangen	-9.82915
▁serve	-9.82923
▁card	-9.82949
▁Fernseh	-9.82975
▁mean	-9.82985
gave	-9.83012
▁released	-9.8304
lage	-9.83107
▁quit	-9.83154
▁Presse	-9.83309
amt	-9.83377
▁Sicherheits	-9.83381
▁individual	-9.83381
▁schwierig	-9.83381
▁schwarze	-9.83382
▁Britain	-9.83382
▁helfen	-9.83391
▁community	-9.83397
▁crime	-9.83398
tage	-9.83459
▁Müller	-9.83572
▁partner	-9.83595
▁programme	-9.83613
▁Person	-9.83703
▁disc	-9.83895
▁Lang	-9.83913
▁count	-9.83944
wards	-9.84
▁geworden	-9.84007
▁cross	-9.84009
▁investment	-9.84091
currently	-9.84147
▁Eis	-9.84235
▁elections	-9.8428
▁bus	-9.84503
▁Idee	-9.84585
▁planned	-9.84646
▁möchte	-9.84659
▁2006	-9.84689
hand	-9.8484
▁extra	-9.84908
▁ahead	-9.84958
▁Grenze	-9.84971
▁Of	-9.8498
mus	-9.85003
▁nahm	-9.85009
▁fand	-9.85041
▁amerikanischen	-9.85045
▁workers	-9.85054
▁candidate	-9.85189
▁job	-9.85195
▁Last	-9.85208
▁Sal	-9.85226
bert	-9.85249
▁benefit	-9.85268
▁Papua	-9.85268
▁education	-9.85268
▁federal	-9.85268
schrift	-9.8527
▁gesamte	-9.85272
▁britische	-9.85273
▁Institute	-9.85292
geschlagen	-9.85299
▁Deutsche	-9.853
▁setzt	-9.85313
▁While	-9.85324
▁fehl	-9.8538
gal	-9.8539
▁unbe	-9.85676
▁Tier	-9.85818
sichtlich	-9.85834
kr	-9.85862
▁champion	-9.85895
▁respect	-9.85905
▁Merkel	-9.85905
▁HIV	-9.85905
▁wrote	-9.85906
▁mother	-9.8591
▁pressure	-9.85929
▁sent	-9.86009
▁Akt	-9.86075
▁Va	-9.8609
ister	-9.86153
▁Ob	-9.86169
tum	-9.8619
▁System	-9.86204
▁führt	-9.86353
▁holiday	-9.86546
▁verwendet	-9.86549
▁darunter	-9.86559
▁super	-9.86585
▁actually	-9.86604
pper	-9.86606
▁costs	-9.86606
▁attend	-9.8661
▁handelt	-9.86637
schuld	-9.8666
▁Ger	-9.86679
▁provided	-9.86719
▁express	-9.86771
▁Probleme	-9.86823
▁Erst	-9.86845
▁saw	-9.86881
▁Test	-9.87038
▁weiteren	-9.87125
▁violence	-9.87191
▁yesterday	-9.87191
▁Kritik	-9.87192
▁avoid	-9.87193
▁Angaben	-9.87193
▁average	-9.87195
▁Aussage	-9.87253
▁Far	-9.87317
▁FC	-9.87342
▁deshalb	-9.87363
▁lack	-9.87406
▁Ihr	-9.87407
istic	-9.87498
rät	-9.87685
▁gesch	-9.87695
▁achieve	-9.87841
▁erzählt	-9.87841
▁Kongress	-9.87847
▁Flugzeug	-9.87847
staat	-9.87861
▁store	-9.87987
ware	-9.87997
für	-9.88058
jahr	-9.88141
reichen	-9.88244
▁fo	-9.88251
▁rates	-9.88268
▁Hoch	-9.8837
▁Ste	-9.88397
kräfte	-9.88477
▁potential	-9.88494
▁Firmen	-9.88495
▁Gebiet	-9.88495
▁responsible	-9.88495
wechsel	-9.88501
wick	-9.88522
gezogen	-9.88539
▁Krise	-9.88582
▁understand	-9.88621
▁Moment	-9.88641
▁appear	-9.88676
spieler	-9.88718
augh	-9.88816
▁Dem	-9.88853
glich	-9.8893
▁Fran	-9.89
▁Rio	-9.89024
erin	-9.89032
ify	-9.89064
▁300	-9.89088
▁council	-9.89152
▁Council	-9.89152
▁therefore	-9.89153
▁track	-9.89207
▁port	-9.8921
▁mag	-9.89216
▁park	-9.89231
▁Freund	-9.89321
▁single	-9.89431
▁stage	-9.89532
roh	-9.89706
▁stellte	-9.89733
▁Ergebnisse	-9.89807
▁Gebäude	-9.89814
▁Wettbewerb	-9.89814
▁besonders	-9.89814
▁remember	-9.89814
▁mobile	-9.89815
▁blood	-9.89816
▁jemand	-9.89817
▁gain	-9.8983
▁sure	-9.89856
▁loss	-9.89862
▁forward	-9.89886
▁needs	-9.89904
▁shop	-9.89925
▁score	-9.89965
▁soon	-9.90005
werte	-9.90134
▁heißt	-9.90145
iker	-9.90161
▁gebe	-9.90176
▁mid	-9.90186
▁Erdogan	-9.90481
▁wahrscheinlich	-9.90481
▁collect	-9.90481
▁mindesten	-9.90482
▁Gewinn	-9.90483
▁begann	-9.90573
▁gold	-9.90631
▁Menge	-9.90683
well	-9.90701
▁sport	-9.90772
▁26	-9.90784
▁Wind	-9.90847
▁force	-9.90885
▁ask	-9.90933
jährigen	-9.90939
Der	-9.90982
coming	-9.90992
▁minutes	-9.91003
▁Africa	-9.91152
▁kind	-9.9116
▁Rad	-9.912
▁improve	-9.91208
▁Wohn	-9.91318
▁seat	-9.91426
▁seem	-9.91475
isierung	-9.9155
▁Anti	-9.91563
▁heart	-9.91583
▁gegeben	-9.91654
schließlich	-9.91722
verkehr	-9.91731
▁executive	-9.91828
▁necessary	-9.91828
▁subject	-9.91828
▁above	-9.91833
▁Verbindung	-9.91843
▁write	-9.91844
▁held	-9.91869
▁Chance	-9.91893
ps	-9.9207
▁hohe	-9.92118
▁send	-9.9234
body	-9.92498
▁Google	-9.92508
▁complain	-9.92508
▁common	-9.9251
▁huge	-9.92512
use	-9.92589
▁By	-9.92629
▁Angriff	-9.92635
▁Minuten	-9.92652
▁bill	-9.9271
▁Sache	-9.92726
Ein	-9.92752
ably	-9.92925
▁Einige	-9.92938
▁training	-9.92959
▁caused	-9.92996
▁70	-9.92998
anne	-9.93036
pped	-9.93058
▁trans	-9.9316
fähig	-9.93167
▁Dezember	-9.93193
▁Erfahrung	-9.93193
▁Privat	-9.93193
▁absolut	-9.93194
▁estimate	-9.93194
▁contact	-9.93194
▁learn	-9.93196
▁Ansicht	-9.93205
▁results	-9.93289
▁getting	-9.93354
▁Ye	-9.93368
▁remains	-9.93443
▁towards	-9.93493
▁Grenz	-9.93517
▁terms	-9.93584
▁...	-9.93696
▁table	-9.93713
▁arbeitet	-9.93734
Man	-9.93748
bericht	-9.93845
schluss	-9.93853
▁Professor	-9.93883
▁Chinese	-9.93884
▁draw	-9.93884
▁rights	-9.93888
▁animal	-9.93901
setzung	-9.93907
▁damals	-9.93918
▁round	-9.93961
▁organis	-9.94143
▁bisher	-9.94221
▁gekommen	-9.94281
greifen	-9.94352
bit	-9.9438
▁Telefon	-9.94577
▁property	-9.94577
▁erinnert	-9.94578
schläge	-9.9458
mals	-9.94602
▁non	-9.94618
▁Seine	-9.94722
tier	-9.9483
tze	-9.94866
▁sales	-9.94945
merk	-9.94949
motiv	-9.94963
▁Kan	-9.94972
▁owner	-9.94977
▁Tagen	-9.95039
lern	-9.95047
▁wider	-9.95049
▁Steve	-9.9514
▁products	-9.95154
Ö	-9.95177
ping	-9.9521
programm	-9.95269
fahrt	-9.95277
▁Barcelona	-9.95277
▁Mädchen	-9.95277
▁practice	-9.95277
▁schrieb	-9.95277
▁Office	-9.95277
▁passenger	-9.95278
▁wait	-9.95279
▁Verkehrs	-9.9528
▁allowed	-9.953
▁reduce	-9.95317
▁meint	-9.95356
▁develop	-9.95458
▁Bush	-9.95481
▁Quebec	-9.9549
trieb	-9.95702
▁denn	-9.95961
▁Mexico	-9.95981
▁Forscher	-9.95986
▁brachte	-9.95989
▁Champions	-9.96
meister	-9.96007
▁slow	-9.96032
▁2005	-9.96041
▁Inter	-9.96065
kept	-9.96077
▁White	-9.96087
▁Bis	-9.96105
verband	-9.96199
▁Renn	-9.96326
low	-9.96414
▁author	-9.96652
leben	-9.96655
▁probably	-9.9669
▁vielleicht	-9.9669
▁sleep	-9.9669
▁title	-9.96691
stimmen	-9.96698
▁finish	-9.96702
▁geplant	-9.96703
▁Frankreich	-9.96704
▁Denn	-9.96732
▁leaders	-9.96742
▁dank	-9.96797
▁parties	-9.96814
▁nation	-9.96821
▁besteht	-9.96896
▁dollars	-9.96924
▁politische	-9.96998
back	-9.97111
▁discuss	-9.97141
ped	-9.97165
▁sah	-9.97306
▁Zusammen	-9.97392
präsident	-9.97403
▁Government	-9.97404
▁administration	-9.97404
▁network	-9.97404
▁Partner	-9.97405
▁Bewegung	-9.97405
▁push	-9.97405
▁Austria	-9.9741
▁text	-9.97477
▁issues	-9.97567
▁cap	-9.97569
stände	-9.97578
▁wer	-9.97579
isse	-9.97593
▁bat	-9.97651
▁Ya	-9.97764
So	-9.97799
▁Unternehmens	-9.97874
▁Can	-9.97896
acy	-9.9793
anten	-9.97977
▁term	-9.98098
imp	-9.98108
▁lag	-9.98109
-1	-9.98118
▁approach	-9.98124
nimmt	-9.98125
dräng	-9.98149
▁Party	-9.9816
▁meet	-9.98171
▁Hall	-9.98201
park	-9.98207
▁Klein	-9.98319
▁drive	-9.9833
▁gesehen	-9.98331
änge	-9.9834
▁Tu	-9.98345
▁33	-9.98386
▁suit	-9.98388
▁attempt	-9.9839
▁berichtet	-9.98399
fach	-9.98423
ney	-9.98544
▁Boden	-9.98588
▁gering	-9.98596
0.000	-9.98675
▁Hor	-9.98705
round	-9.98772
▁verloren	-9.98795
▁unterstützt	-9.98848
▁impact	-9.98849
▁check	-9.98858
▁wirtschaftliche	-9.9886
▁Virginia	-9.98864
bringen	-9.98872
▁presidential	-9.98905
▁Einsatz	-9.98977
▁prices	-9.98996
If	-9.99049
▁sit	-9.99081
▁Star	-9.99197
maker	-9.99238
▁zer	-9.99307
▁Pu	-9.9934
▁ball	-9.99457
stärk	-9.99582
▁modern	-9.99586
wirtschaft	-9.99591
▁criminal	-9.99597
▁transport	-9.99602
▁Democratic	-9.99618
hält	-9.9964
▁000	-9.99643
▁George	-9.99658
▁host	-9.99672
▁ice	-9.99778
▁begin	-10.0018
▁claim	-10.003
hoben	-10.0031
▁December	-10.0031
▁genannt	-10.0031
▁survey	-10.0031
▁device	-10.0031
▁Drogen	-10.0031
▁Leiter	-10.0033
▁Commission	-10.0033
iva	-10.0033
▁sing	-10.0046
▁key	-10.0048
▁option	-10.0053
▁accused	-10.0054
▁showed	-10.0055
▁vehicles	-10.0057
stehende	-10.0063
▁works	-10.0066
▁Bas	-10.0068
ried	-10.0074
unternehmen	-10.0082
▁serious	-10.0086
rzte	-10.0102
▁vorher	-10.0104
▁Europäische	-10.0105
▁Scotland	-10.0105
▁exchange	-10.0105
▁picture	-10.0105
▁decade	-10.0106
▁blieb	-10.0106
▁Trainer	-10.0106
▁Prime	-10.0106
▁address	-10.0107
▁doesn	-10.0107
▁sprechen	-10.011
▁immediately	-10.0111
▁treatment	-10.0113
▁someone	-10.0116
▁aufzu	-10.0121
▁fund	-10.0125
▁unit	-10.0125
▁erreichen	-10.013
▁makes	-10.0136
▁hall	-10.0139
▁wahr	-10.0143
▁Tre	-10.0145
gesetz	-10.0148
▁changes	-10.0161
▁relativ	-10.0165
▁Sha	-10.0173
▁rec	-10.0174
▁ebenso	-10.018
gesprochen	-10.018
▁Italian	-10.018
▁request	-10.018
▁appeal	-10.018
▁deliver	-10.018
▁sector	-10.0182
▁PSG	-10.0182
▁Unfall	-10.0186
▁Bill	-10.0188
ties	-10.0209
▁Hans	-10.0213
▁Politik	-10.0218
rüh	-10.0226
án	-10.0227
▁beide	-10.0245
▁warum	-10.0252
▁photo	-10.0253
▁Kavanaugh	-10.0255
▁Risiko	-10.0255
ification	-10.0255
▁größte	-10.0257
▁treat	-10.0258
▁everyone	-10.026
like	-10.0263
▁Such	-10.027
▁boo	-10.0273
▁Macht	-10.0276
läss	-10.0281
▁suffer	-10.0285
▁closed	-10.0286
Mo	-10.0288
sitz	-10.0299
▁How	-10.03
ically	-10.0318
▁aim	-10.0321
▁friend	-10.0322
▁$1	-10.033
▁Festival	-10.0331
▁Mexiko	-10.0331
▁victory	-10.0331
▁Hilfe	-10.0331
▁Titel	-10.0331
▁scheint	-10.0333
▁Eltern	-10.0335
▁Verkauf	-10.0336
▁prison	-10.0337
▁story	-10.0337
▁amerikanische	-10.0348
▁Two	-10.035
▁reform	-10.0352
▁Aktion	-10.0361
mple	-10.0366
Pro	-10.0372
gebaut	-10.0374
▁400	-10.0375
▁program	-10.0382
▁Tages	-10.0384
oni	-10.0391
▁Tat	-10.0391
▁needed	-10.0396
▁Tour	-10.0398
▁Ly	-10.0399
führer	-10.0399
▁alt	-10.0405
▁äußer	-10.0407
▁Labour	-10.0407
▁insgesamt	-10.0407
▁spokesman	-10.0407
▁versuchen	-10.0407
▁popular	-10.0408
▁Leistung	-10.0408
▁carried	-10.041
▁considered	-10.0414
▁delay	-10.0417
ula	-10.0418
zustellen	-10.0422
▁2000	-10.0433
liegen	-10.0433
25	-10.0435
Wenn	-10.0435
▁nächste	-10.0443
La	-10.0452
▁zuvor	-10.0456
awa	-10.0458
▁groups	-10.0468
▁seems	-10.0477
▁Verteidigung	-10.0484
▁Verwaltung	-10.0484
▁argument	-10.0484
▁entfernt	-10.0484
häuser	-10.0484
gebiet	-10.0486
▁pur	-10.0489
▁quickly	-10.0493
buch	-10.0495
tausend	-10.0495
▁Lauf	-10.0498
▁(1	-10.05
schutz	-10.0506
ände	-10.0508
▁Tom	-10.0509
alität	-10.051
▁Wieder	-10.0513
▁Pf	-10.0513
▁original	-10.0513
▁arrested	-10.0522
▁größten	-10.0534
▁worked	-10.054
Le	-10.0542
▁base	-10.0548
▁significant	-10.0559
▁Verb	-10.0561
▁challenge	-10.0562
▁natürlich	-10.0562
▁knapp	-10.0562
▁Bürgermeister	-10.0563
stoß	-10.0563
kraft	-10.0563
▁Mehrheit	-10.0565
▁Vater	-10.0571
amerikanische	-10.0573
▁declared	-10.0574
lia	-10.0576
▁Fach	-10.058
▁published	-10.0581
▁paar	-10.0584
▁couple	-10.0584
▁Stern	-10.059
▁schaffen	-10.0594
▁described	-10.0595
▁ran	-10.0601
▁Pass	-10.0601
75	-10.0605
▁größere	-10.0606
▁Fahrer	-10.0614
▁Nu	-10.0615
rum	-10.0622
▁anderem	-10.0623
▁Experten	-10.0634
fasst	-10.0635
▁Sozial	-10.064
▁Republikaner	-10.064
▁metres	-10.0643
bare	-10.0646
seits	-10.0646
▁Betrieb	-10.0648
▁Fuß	-10.0651
▁Alb	-10.0654
krise	-10.0655
80	-10.0656
▁wide	-10.0657
▁Op	-10.0662
denken	-10.0671
gab	-10.0674
▁Bilder	-10.0675
▁glauben	-10.0678
▁banks	-10.0686
sol	-10.0696
▁award	-10.0697
▁3.	-10.0699
▁direct	-10.0705
▁rules	-10.0708
▁reached	-10.0709
▁Verhandlung	-10.0719
▁although	-10.0719
▁colleague	-10.0719
▁league	-10.0719
▁management	-10.0719
▁niemand	-10.0719
ova	-10.072
60	-10.0721
halb	-10.0727
dauer	-10.073
ließ	-10.0735
haltung	-10.0738
▁latest	-10.074
cation	-10.0758
▁alten	-10.0763
kreis	-10.0765
▁Mac	-10.077
▁Brit	-10.0772
wood	-10.0774
▁date	-10.0778
espite	-10.078
raten	-10.0787
▁lit	-10.0793
▁Punkt	-10.0797
▁mar	-10.0797
▁insbesondere	-10.0798
▁compared	-10.0798
▁Treffen	-10.0798
▁Simon	-10.0799
▁Other	-10.0799
▁lawyer	-10.0799
▁kaum	-10.0799
▁happened	-10.08
▁task	-10.08
▁ban	-10.0803
▁oil	-10.0803
▁darin	-10.081
gebracht	-10.0812
halle	-10.0818
▁daher	-10.082
▁January	-10.0822
▁Job	-10.0828
▁Hier	-10.0828
▁confirmed	-10.0829
ütt	-10.083
▁claims	-10.083
▁games	-10.083
mail	-10.0833
▁fun	-10.0834
gesellschaft	-10.0839
term	-10.0839
▁organ	-10.0844
▁Herz	-10.0853
▁Januar	-10.0854
geführt	-10.0861
▁receive	-10.0868
▁liegen	-10.087
▁Miss	-10.0877
▁Verletzung	-10.0878
▁Hälfte	-10.0878
▁Kilometer	-10.0878
▁committee	-10.0878
▁unterstützen	-10.0878
▁Muslim	-10.0878
▁wife	-10.0878
▁Kraft	-10.0878
▁observ	-10.0878
▁neben	-10.0879
▁Ve	-10.0879
▁replac	-10.088
▁gewinnen	-10.0881
▁Verfassung	-10.0881
bahn	-10.0882
▁Foto	-10.0884
▁wall	-10.0889
raf	-10.089
▁paid	-10.0895
▁--	-10.0895
▁create	-10.0899
▁engag	-10.0903
▁completely	-10.0904
▁Berg	-10.0904
▁join	-10.0904
kauf	-10.0908
ime	-10.0917
bri	-10.0922
▁Position	-10.0959
▁Soldaten	-10.0959
▁asylum	-10.0959
▁evidence	-10.0959
▁happy	-10.0959
▁regular	-10.0959
▁Italien	-10.0959
▁answer	-10.0959
▁Angst	-10.0959
▁cancer	-10.0961
▁Amerikaner	-10.0962
▁true	-10.0964
▁Ländern	-10.0978
hal	-10.0981
▁kommende	-10.0983
style	-10.0994
arbeitet	-10.0998
▁hart	-10.1004
▁Weil	-10.1009
▁playing	-10.1027
lose	-10.1033
Doping	-10.1037
▁Industrie	-10.104
▁entwickelt	-10.104
▁tatsächlich	-10.104
▁Büro	-10.104
▁agency	-10.104
▁else	-10.1044
▁officers	-10.1046
▁Aufgabe	-10.1046
▁Blut	-10.1051
▁via	-10.106
▁ready	-10.1077
▁zeigte	-10.1083
▁trial	-10.109
▁Weiße	-10.1117
isation	-10.1118
▁journalist	-10.1122
▁suspect	-10.1122
▁church	-10.1122
▁simply	-10.1122
▁speech	-10.1122
▁opposition	-10.1122
▁Lin	-10.1122
▁central	-10.1122
car	-10.1123
▁2018	-10.1124
▁foot	-10.1125
▁High	-10.1126
▁Manning	-10.1126
▁Blick	-10.1127
▁erhielt	-10.1132
▁weekend	-10.1135
▁Rob	-10.1137
▁creat	-10.114
▁verlassen	-10.114
▁para	-10.1148
▁UN	-10.1149
▁Gesundheits	-10.1153
▁shows	-10.1163
▁Band	-10.1166
▁Licht	-10.1175
▁75	-10.118
▁Also	-10.1183
▁artist	-10.1192
▁south	-10.12
aria	-10.1201
▁markets	-10.1204
▁Kampagne	-10.1205
▁doubt	-10.1205
▁gehören	-10.1205
▁material	-10.1205
▁technology	-10.1205
▁Congress	-10.1205
▁aktuelle	-10.1205
▁either	-10.1205
▁Seiten	-10.1205
▁medical	-10.1205
▁lässt	-10.1206
▁running	-10.1206
▁Gründe	-10.1209
▁Angebot	-10.1209
▁2003	-10.1213
▁protection	-10.1214
▁door	-10.1214
▁stock	-10.1215
▁thus	-10.1218
▁increased	-10.122
grund	-10.1225
ois	-10.1227
oth	-10.1232
wesen	-10.1232
▁Wei	-10.1236
▁politischen	-10.1237
▁People	-10.1241
▁glaube	-10.1248
▁explains	-10.1262
▁Eigen	-10.1264
▁citizens	-10.127
▁measures	-10.1286
▁erhöht	-10.1288
▁schön	-10.1288
▁shooting	-10.1288
▁Maßnahmen	-10.1288
▁chairman	-10.1288
▁Munich	-10.1288
hilfe	-10.1288
▁anything	-10.1288
▁erneut	-10.1288
stellt	-10.129
▁union	-10.1293
▁Online	-10.1294
▁hotel	-10.1294
▁Super	-10.1299
weil	-10.1304
▁Vertrag	-10.1307
ash	-10.1316
reise	-10.1317
▁build	-10.132
▁Tür	-10.1321
änder	-10.1328
▁Port	-10.1334
▁leid	-10.1361
seite	-10.1365
wind	-10.1369
▁English	-10.1372
▁Interview	-10.1372
▁erfolgreich	-10.1372
▁genug	-10.1373
▁debt	-10.1374
schreiben	-10.1374
▁additional	-10.1374
▁Banken	-10.1375
▁Viele	-10.1376
▁perform	-10.1377
▁whom	-10.1381
▁Schutz	-10.1383
via	-10.1386
▁decided	-10.1396
sichtig	-10.1405
stück	-10.1407
▁produce	-10.1415
▁attacks	-10.1417
mäßig	-10.142
▁berichtete	-10.1425
rand	-10.1426
▁Wall	-10.1441
No	-10.1442
ular	-10.1445
▁issued	-10.1451
▁neun	-10.1451
hnung	-10.1453
▁Dokument	-10.1457
▁notwendig	-10.1457
▁double	-10.1457
▁Beginn	-10.1457
▁dream	-10.1457
▁Jahrzehnt	-10.1457
▁strike	-10.1458
▁safety	-10.1458
▁Group	-10.1459
▁Transport	-10.1459
▁promise	-10.146
▁successful	-10.146
▁Schule	-10.146
▁Nur	-10.1461
▁Andrew	-10.1462
▁standard	-10.1464
▁Morgen	-10.1465
▁floor	-10.1469
▁Meer	-10.1469
▁Kandidaten	-10.1475
▁findet	-10.148
▁Bildung	-10.1482
▁Pre	-10.1485
▁44	-10.1488
▁affected	-10.1488
dition	-10.1498
▁Sitz	-10.1503
▁gla	-10.1507
gegen	-10.1508
▁hoffe	-10.1509
▁doctors	-10.1514
▁4.	-10.1518
▁Freunde	-10.152
▁career	-10.1524
▁sagten	-10.1528
▁rule	-10.1531
geschäft	-10.1535
▁Ministry	-10.1542
▁Syrien	-10.1542
▁language	-10.1542
▁niedrig	-10.1542
▁computer	-10.1542
▁afternoon	-10.1542
▁März	-10.1542
▁type	-10.1542
▁gilt	-10.1543
leistung	-10.1544
▁speed	-10.1545
rauch	-10.1555
von	-10.1561
▁minute	-10.1561
▁mass	-10.1565
▁sound	-10.1566
▁News	-10.1569
▁fallen	-10.1576
59	-10.1577
suche	-10.1578
▁Tel	-10.1579
▁Angela	-10.1582
light	-10.1587
▁finally	-10.1588
▁Air	-10.1588
▁laufen	-10.1597
fallen	-10.1603
▁Nachrichten	-10.1621
▁Rede	-10.1624
▁App	-10.1625
200	-10.1626
▁Pakistan	-10.1628
▁Erklärung	-10.1628
▁behauptet	-10.1628
▁middle	-10.1628
spruch	-10.1628
▁Firma	-10.1628
▁Schüler	-10.1629
▁verkauft	-10.1629
▁internationalen	-10.1629
▁families	-10.163
▁remov	-10.163
▁worth	-10.1631
▁massive	-10.1632
▁strength	-10.1633
▁production	-10.1634
▁Miet	-10.1638
▁extreme	-10.1639
▁zunächst	-10.1641
▁schließlich	-10.1642
▁fiel	-10.1646
wagen	-10.1663
▁150	-10.1663
▁Zum	-10.1665
▁tend	-10.1669
urteil	-10.167
▁eng	-10.1673
▁Nieder	-10.1676
isieren	-10.1679
▁lives	-10.1692
▁Fragen	-10.1697
▁Natur	-10.1709
▁König	-10.1714
▁manufacturer	-10.1715
▁operator	-10.1715
▁Vertreter	-10.1715
▁asbestos	-10.1715
▁müsste	-10.1715
▁search	-10.1717
▁Center	-10.1717
▁Feld	-10.1721
räume	-10.1723
atory	-10.1724
▁winner	-10.1729
▁sprach	-10.173
grad	-10.1732
▁Werk	-10.1734
▁Trans	-10.1737
▁toll	-10.1744
dom	-10.1745
▁fell	-10.1745
▁agreed	-10.1752
▁Rechts	-10.1752
▁prepar	-10.1764
10	-10.1769
▁Kindern	-10.1774
▁My	-10.1776
▁Just	-10.1789
▁Committee	-10.1803
▁weapon	-10.1803
▁parents	-10.1803
▁Premierminister	-10.1804
▁earn	-10.1804
alter	-10.1807
▁scene	-10.1811
▁Motor	-10.1813
▁liebe	-10.1816
▁Beruf	-10.1818
liga	-10.1823
▁Kol	-10.1823
▁Times	-10.1827
erei	-10.1828
▁purchase	-10.1831
▁Rock	-10.1832
pack	-10.1835
▁Bay	-10.1835
▁sold	-10.1844
▁limit	-10.1846
▁March	-10.1849
You	-10.1854
wide	-10.1857
▁forced	-10.1865
▁places	-10.1869
▁Real	-10.187
▁teacher	-10.1873
fahrer	-10.189
▁Behandlung	-10.1892
▁Department	-10.1892
▁Schauspieler	-10.1892
▁Stuttgart	-10.1892
▁surprise	-10.1892
▁father	-10.1892
bruch	-10.1892
▁compet	-10.1893
▁Hauptstadt	-10.1893
ology	-10.1894
▁alone	-10.1895
▁paper	-10.1898
▁forces	-10.19
▁aware	-10.1906
▁direction	-10.1906
▁wind	-10.1906
▁mind	-10.1911
▁efforts	-10.1919
arch	-10.1919
▁factor	-10.192
▁required	-10.1921
▁fair	-10.1926
▁Dienst	-10.1928
▁opening	-10.1946
15	-10.1963
zunehmen	-10.1969
▁cars	-10.197
kunft	-10.1979
▁Gewerkschaft	-10.1981
▁demokratische	-10.1981
geschrieben	-10.1981
▁befindet	-10.1981
▁Club	-10.1981
▁Spain	-10.1981
▁außerdem	-10.1982
gründe	-10.1983
karte	-10.1984
freund	-10.1984
▁presented	-10.1988
▁Radio	-10.1989
▁Tim	-10.199
▁jobs	-10.1992
fertig	-10.1996
▁kamen	-10.1998
▁counter	-10.1999
▁Mel	-10.2005
▁Gespräch	-10.2008
▁cur	-10.2012
▁II	-10.2014
▁discussion	-10.2014
▁inside	-10.2014
house	-10.2023
▁Cal	-10.2024
cri	-10.2026
▁Press	-10.2026
person	-10.2032
▁Act	-10.2034
steigen	-10.2039
▁Will	-10.204
▁Selbst	-10.2041
sweise	-10.2048
gewalt	-10.2051
east	-10.2051
▁Rest	-10.2068
▁Schmidt	-10.2071
▁politician	-10.2071
▁Kultur	-10.2071
▁Kontakt	-10.2071
▁organization	-10.2071
▁managed	-10.2071
▁Fro	-10.2076
▁organisation	-10.2081
▁Senator	-10.2082
▁weg	-10.2091
▁failed	-10.2099
▁Zug	-10.2107
▁gleichen	-10.2112
▁wenige	-10.2112
▁suffered	-10.2126
▁Kreis	-10.2131
▁hohen	-10.2146
kosten	-10.2149
▁moved	-10.216
▁eigentlich	-10.2162
▁specific	-10.2162
▁residents	-10.2162
▁Ban	-10.2162
▁source	-10.2162
▁First	-10.2162
▁instead	-10.2162
▁Obwohl	-10.2163
▁Wolf	-10.2163
▁sexual	-10.2163
▁Journalisten	-10.2163
▁treffen	-10.2163
▁planning	-10.2164
▁crash	-10.2164
▁spoke	-10.2168
▁2004	-10.217
▁react	-10.2172
sieg	-10.2175
▁del	-10.2179
▁letter	-10.2181
▁gewisse	-10.2182
▁Drei	-10.2186
83	-10.2186
▁These	-10.2193
▁Maria	-10.2196
work	-10.2201
rechte	-10.2219
▁spend	-10.2237
kampf	-10.2253
▁Führer	-10.2254
▁accommodation	-10.2254
▁Rahmen	-10.2254
▁Städte	-10.2254
▁Schwarz	-10.2254
▁camp	-10.2254
▁angeblich	-10.2254
hood	-10.2254
▁zahlreiche	-10.2255
▁sense	-10.2256
▁überhaupt	-10.226
▁invit	-10.2262
betrieb	-10.2263
▁darum	-10.2269
▁Chi	-10.2276
▁Mitglied	-10.2282
▁words	-10.2287
▁release	-10.2304
anlage	-10.2318
▁rent	-10.2329
runk	-10.2331
▁rid	-10.2332
▁jedes	-10.234
▁employ	-10.2341
They	-10.2344
▁künftig	-10.2346
▁Krankheit	-10.2346
▁Ratzinger	-10.2346
▁incident	-10.2346
▁department	-10.2346
▁Agency	-10.2346
▁Prozess	-10.2346
▁länger	-10.2346
▁contain	-10.2346
▁attract	-10.2348
▁pull	-10.2348
▁breite	-10.2349
▁conduct	-10.2349
▁erzielt	-10.235
▁Wahlen	-10.2352
west	-10.2352
▁created	-10.2353
▁Brief	-10.2353
▁Modell	-10.2354
▁700	-10.2361
▁Anstieg	-10.2364
▁deep	-10.2377
▁Preise	-10.2381
artig	-10.2397
▁Jugendliche	-10.2407
▁clearly	-10.2411
▁Streit	-10.243
▁Immobilien	-10.2434
arbeiter	-10.2436
▁conference	-10.244
▁difference	-10.244
▁feature	-10.244
▁television	-10.244
▁NATO	-10.244
▁senior	-10.244
▁Swiss	-10.244
▁peace	-10.244
produkt	-10.244
▁Gesamt	-10.244
▁plea	-10.2441
▁debate	-10.2441
▁alte	-10.2442
▁Armee	-10.2443
▁Pfund	-10.2444
hause	-10.2446
▁Zeitpunkt	-10.2449
▁included	-10.2466
table	-10.2471
▁Alt	-10.2481
leiter	-10.2484
▁continued	-10.2485
▁arrest	-10.2488
▁Haushalt	-10.249
▁Außen	-10.2498
long	-10.2499
▁wish	-10.2505
▁wollten	-10.2522
▁morgen	-10.2524
wachsen	-10.2524
DF	-10.2527
▁Olympia	-10.2534
▁Bedeutung	-10.2534
▁implement	-10.2534
▁population	-10.2534
▁electric	-10.2534
▁biggest	-10.2534
läuft	-10.2534
▁Waffen	-10.2534
▁voice	-10.2534
▁Schlaf	-10.2534
▁Show	-10.2534
▁Venus	-10.2535
▁rescue	-10.2535
▁felt	-10.2536
rief	-10.2545
▁rain	-10.2545
tausch	-10.2548
▁experts	-10.2551
▁changed	-10.2558
getragen	-10.2561
▁betonte	-10.2571
▁feeling	-10.2572
ease	-10.2581
▁Gefahr	-10.259
▁Jenn	-10.2595
▁figures	-10.2598
12	-10.2599
▁Emp	-10.2601
▁32	-10.2605
ritt	-10.2607
▁Kauf	-10.2609
▁Fern	-10.2625
▁Kranken	-10.2627
▁Autor	-10.2628
▁Verfügung	-10.2629
▁Wachstum	-10.2629
▁Richard	-10.2629
▁Terror	-10.2629
▁IBM	-10.2629
▁unge	-10.263
▁Lebensmittel	-10.2631
▁disease	-10.2631
500	-10.2632
▁remained	-10.2632
Diese	-10.2639
▁Gau	-10.2651
linie	-10.2651
▁grand	-10.2659
▁Mode	-10.2665
▁meinen	-10.2673
▁Sinn	-10.2674
▁spät	-10.2676
▁enter	-10.2684
▁Produkte	-10.2687
▁spa	-10.2693
▁parliament	-10.2703
▁heard	-10.2721
▁stated	-10.2723
▁secret	-10.2723
▁Technologie	-10.2725
▁entschied	-10.2725
▁getroffen	-10.2725
▁Glück	-10.2725
▁Viertel	-10.2726
ordnung	-10.2728
▁commission	-10.273
CE	-10.2737
▁opt	-10.2741
enberg	-10.2746
▁art	-10.2749
▁Damit	-10.275
▁Brand	-10.2751
▁Luis	-10.2761
▁word	-10.2762
▁Andere	-10.2773
▁ski	-10.2783
▁sur	-10.2787
hop	-10.2788
▁vehicle	-10.2789
▁anderer	-10.2806
ado	-10.2809
▁Stimmen	-10.2812
▁Einzel	-10.2818
▁sports	-10.282
▁Bevölkerung	-10.2822
▁Gefängnis	-10.2822
▁Investor	-10.2822
▁Lösung	-10.2822
▁festival	-10.2822
▁soldiers	-10.2823
▁throw	-10.2823
▁sometimes	-10.2823
regierung	-10.2823
▁ensure	-10.2823
▁dispute	-10.2823
▁jeweil	-10.2823
▁annual	-10.2824
▁location	-10.2824
▁reality	-10.2835
▁consumer	-10.2837
▁prove	-10.284
▁Angeles	-10.2844
▁Zur	-10.2845
To	-10.2855
▁previously	-10.2856
▁sex	-10.2857
▁grant	-10.2857
kommt	-10.2873
▁36	-10.2891
▁Börse	-10.292
▁District	-10.292
▁Manchester	-10.292
▁tschechische	-10.292
▁Director	-10.292
▁piece	-10.2921
▁drink	-10.2921
▁Antwort	-10.2921
▁Zusammenarbeit	-10.2922
kleid	-10.2927
▁Johnson	-10.2927
▁durchgeführt	-10.2928
▁candidates	-10.2933
▁arrived	-10.2948
Y	-10.2949
▁Personal	-10.2954
▁beat	-10.296
▁agree	-10.2971
▁Zo	-10.2981
▁Kurs	-10.2982
▁Vier	-10.2989
▁Ala	-10.299
▁Handy	-10.2995
wende	-10.3
stab	-10.3005
▁Republic	-10.3008
zog	-10.3012
▁möchten	-10.3016
▁hält	-10.3019
▁Japan	-10.3019
▁Außerdem	-10.3019
▁jährlich	-10.3019
▁built	-10.3019
▁weltweit	-10.3019
▁perfect	-10.3019
▁vermutlich	-10.3019
▁Patienten	-10.302
fällt	-10.302
▁wrong	-10.302
▁housing	-10.302
▁Spanien	-10.302
▁bomb	-10.302
▁Tochter	-10.302
▁Wood	-10.302
▁attention	-10.302
11	-10.302
▁sofort	-10.302
▁Ball	-10.3021
▁Christian	-10.3022
▁kämpfen	-10.3022
▁route	-10.3025
▁genommen	-10.3029
▁song	-10.303
▁professional	-10.3035
gehend	-10.3045
▁belong	-10.3054
▁fourth	-10.3055
ügen	-10.3059
▁lower	-10.3067
largest	-10.3071
▁grow	-10.308
▁55	-10.3086
wasser	-10.3087
▁Gespräche	-10.3089
sky	-10.309
▁flo	-10.31
Co	-10.3102
TV	-10.3104
sicher	-10.3106
ius	-10.3112
▁(4	-10.3113
▁Künstler	-10.3119
▁Hollywood	-10.3119
▁Service	-10.3119
▁audience	-10.3119
▁emotional	-10.3119
▁respond	-10.3119
▁website	-10.3119
▁maintain	-10.3119
▁solution	-10.312
▁Mobil	-10.3121
CSU	-10.3121
eignet	-10.3121
▁falsch	-10.3121
▁bridge	-10.3122
▁Jones	-10.3122
▁dagegen	-10.3123
▁Aktien	-10.3123
▁lebt	-10.3125
▁plane	-10.3134
▁blo	-10.3146
▁versuchte	-10.3161
called	-10.3162
▁opened	-10.3162
▁poor	-10.3162
▁anyone	-10.3167
▁Law	-10.3169
▁Versuch	-10.3176
▁Gesetzes	-10.3179
cat	-10.3179
front	-10.318
▁victims	-10.3181
duct	-10.3187
▁negative	-10.3188
▁denken	-10.3189
▁rot	-10.3189
sprecher	-10.3195
▁kleiner	-10.3195
▁denke	-10.3212
▁hour	-10.3215
bezüglich	-10.322
▁daughter	-10.322
▁diejenigen	-10.322
▁emergency	-10.322
▁italienische	-10.322
▁Operation	-10.3221
stood	-10.3221
▁Generation	-10.3221
▁recover	-10.3222
▁Gesicht	-10.3222
▁staatliche	-10.3222
▁entgegen	-10.3224
▁medal	-10.3226
▁tief	-10.3231
▁Ausgabe	-10.3231
▁Handels	-10.3235
▁offered	-10.3263
▁offizielle	-10.3267
▁Top	-10.3278
▁PS	-10.3278
ündig	-10.3286
▁followed	-10.3288
▁character	-10.3289
▁Regen	-10.329
macht	-10.33
strafe	-10.3301
▁verschiedene	-10.3301
▁müsse	-10.3301
▁expert	-10.3304
▁Minute	-10.3305
▁Za	-10.3305
▁Best	-10.3312
▁geführt	-10.3312
▁forderte	-10.3314
ziehung	-10.3315
schnitt	-10.3321
▁Security	-10.3323
▁kritisiert	-10.3323
▁nuclear	-10.3323
▁nämlich	-10.3323
▁recommend	-10.3323
▁Abbott	-10.3323
▁various	-10.3323
▁Jetzt	-10.3323
zentrum	-10.3323
▁Morgan	-10.3323
▁Opposition	-10.3323
▁James	-10.3323
▁Hamburg	-10.3324
▁Kollegen	-10.3324
▁Reaktion	-10.3332
▁thanks	-10.3332
termin	-10.3332
▁harm	-10.3333
liste	-10.3333
▁Arab	-10.3336
▁reduc	-10.3337
gewinn	-10.3341
▁researchers	-10.3342
▁Vorteil	-10.3345
▁fans	-10.3345
▁notice	-10.3345
▁spot	-10.3353
wan	-10.3353
▁Rettungs	-10.3355
▁gehe	-10.3363
▁fish	-10.3364
chel	-10.3366
▁army	-10.3367
.30	-10.3382
Chef	-10.3383
partei	-10.3383
▁Dur	-10.3386
bereit	-10.3387
schaffen	-10.3388
ücke	-10.3401
board	-10.3403
ativ	-10.3409
▁End	-10.3413
▁Sicht	-10.3414
▁establish	-10.3415
cycl	-10.3418
89	-10.3425
▁Bavaria	-10.3426
▁Hoffnung	-10.3426
▁migrant	-10.3426
▁Österreich	-10.3426
geworfen	-10.3426
▁culture	-10.3426
▁announcement	-10.3426
▁credit	-10.3426
▁depend	-10.3426
▁gleichzeitig	-10.3427
▁admitted	-10.3427
name	-10.3431
▁ausländische	-10.3436
losen	-10.3439
▁Liga	-10.3443
▁Schlag	-10.345
▁ehemaligen	-10.3453
▁revealed	-10.3453
gänge	-10.3458
▁gestellt	-10.3458
▁Tal	-10.3461
▁gelang	-10.3461
▁Asia	-10.3461
▁wag	-10.3466
▁Karl	-10.3467
▁Matt	-10.3473
▁continu	-10.349
▁Mari	-10.3492
▁kleinen	-10.3508
Institut	-10.3509
▁finding	-10.3511
▁Beamte	-10.3514
▁Senat	-10.3516
▁Madrid	-10.353
▁conflict	-10.353
▁opportunity	-10.353
▁republikanische	-10.353
▁Türkei	-10.353
▁Museum	-10.353
▁brother	-10.353
▁insurance	-10.353
▁Corbyn	-10.353
▁näher	-10.353
▁Verlust	-10.353
▁self	-10.353
▁Kredit	-10.3531
▁enorm	-10.3531
▁2001	-10.3537
▁Kohl	-10.3538
turn	-10.3539
▁broke	-10.3543
▁motor	-10.3543
▁Regel	-10.3552
▁120	-10.3553
▁soziale	-10.3554
elect	-10.3557
▁Zi	-10.3559
▁goes	-10.3564
laufen	-10.3567
▁gun	-10.3574
▁vorbei	-10.3578
▁center	-10.3579
▁bitte	-10.358
▁Todes	-10.3582
schafft	-10.3587
▁describ	-10.359
▁fill	-10.3592
geht	-10.3606
durch	-10.3617
▁hielt	-10.3618
▁gewonnen	-10.3635
▁influence	-10.3635
▁response	-10.3635
▁Computer	-10.3635
▁enjoy	-10.3635
▁Veranstaltung	-10.3635
▁wave	-10.3635
▁IAA	-10.3635
shire	-10.3638
▁traf	-10.3639
▁select	-10.3643
▁Besitz	-10.3646
▁nine	-10.3651
▁Reform	-10.3653
▁Hände	-10.3655
▁verschiedenen	-10.3657
▁Wochenende	-10.366
▁Haft	-10.3666
▁Mir	-10.3672
beck	-10.3673
kämpfe	-10.3678
preme	-10.3679
▁pick	-10.3679
wirkt	-10.3683
schlagen	-10.3701
orn	-10.3706
▁Kirche	-10.371
messe	-10.3716
▁starting	-10.3717
▁increasing	-10.3722
▁fit	-10.3729
▁dog	-10.3736
▁Fällen	-10.3737
▁Premier	-10.3741
▁Although	-10.3741
▁Investition	-10.3741
▁Polizisten	-10.3741
▁Publikum	-10.3741
▁chinesische	-10.3741
▁prosecutor	-10.3741
▁progress	-10.3741
▁bietet	-10.3741
▁Jazz	-10.3742
▁separate	-10.3742
▁advise	-10.3742
▁besondere	-10.3742
▁murder	-10.3742
▁clean	-10.3742
▁Forschung	-10.3742
▁gewählt	-10.3742
▁snow	-10.3742
▁resign	-10.3742
▁Italy	-10.3743
▁rival	-10.3744
▁patients	-10.3744
▁spanische	-10.3745
14	-10.3749
▁2020	-10.3749
itude	-10.3751
ception	-10.3753
▁income	-10.3754
▁sexuell	-10.3764
▁jedem	-10.3773
▁weak	-10.3781
▁darf	-10.3788
▁looked	-10.3793
▁developed	-10.3811
▁rein	-10.3812
field	-10.3812
▁funding	-10.3817
▁raise	-10.3817
▁passed	-10.3829
▁Parteien	-10.3832
▁Interesse	-10.3833
▁Handel	-10.3835
▁wichtigste	-10.3844
▁Dom	-10.3846
▁Staatsanwalt	-10.3849
▁Provinz	-10.3849
▁Rodriguez	-10.3849
▁angekündigt	-10.3849
▁application	-10.3849
▁climate	-10.3849
▁glaubt	-10.3849
▁neighbour	-10.3849
▁society	-10.3849
▁verantwortlich	-10.3849
▁Spanish	-10.3849
▁witness	-10.3849
▁athlete	-10.3849
▁welcome	-10.3849
▁Pläne	-10.3849
▁braucht	-10.3849
▁reject	-10.3849
▁verurteilt	-10.385
▁verändert	-10.385
▁Funktion	-10.3851
▁beginnt	-10.3851
▁festgenommen	-10.3852
gelassen	-10.3853
▁bald	-10.3858
▁zahlen	-10.386
▁beste	-10.3864
▁dich	-10.3866
▁Liebe	-10.3872
Mit	-10.3876
▁sun	-10.3876
▁seriously	-10.3877
kurs	-10.3886
90	-10.3889
▁lokale	-10.3892
▁trip	-10.3903
▁Ford	-10.3904
Weltmeister	-10.3911
▁Fischer	-10.3915
geld	-10.3934
ux	-10.3936
uppe	-10.3939
▁Stunde	-10.3944
ridge	-10.395
förder	-10.3955
zeichnung	-10.3958
▁Märkte	-10.3958
▁Turkey	-10.3958
▁beteiligt	-10.3958
▁dürfen	-10.3958
kräftig	-10.3958
projekt	-10.3958
▁Research	-10.3958
▁verbunden	-10.3958
▁Canada	-10.3958
▁FBI	-10.3958
▁Rhein	-10.3958
▁sentence	-10.3958
▁box	-10.3958
▁bieten	-10.3959
▁Henry	-10.3959
▁measure	-10.396
▁trust	-10.3961
▁Musk	-10.3961
▁hieß	-10.3964
▁Klasse	-10.3964
▁condition	-10.3965
▁danach	-10.3966
▁born	-10.3968
▁spring	-10.3971
▁Neben	-10.3971
▁Sonne	-10.3973
▁tragen	-10.3973
▁lose	-10.3977
▁sum	-10.3977
▁Mario	-10.3986
▁file	-10.3986
▁Sein	-10.3994
▁Paar	-10.4013
▁Linie	-10.4025
▁traditional	-10.4037
▁whi	-10.4039
21	-10.4047
band	-10.4048
▁Indonesia	-10.4068
▁Iraq	-10.4068
▁Kommentar	-10.4068
▁fashion	-10.4068
▁scandal	-10.4068
▁Communi	-10.4068
▁Hungary	-10.4068
▁brauchen	-10.4068
▁Zuschauer	-10.4068
▁Thai	-10.4068
▁easy	-10.4068
▁School	-10.4068
▁Bruder	-10.4068
▁Öl	-10.4068
▁Kunst	-10.4068
▁Angel	-10.4075
▁Lehrer	-10.4082
▁Royal	-10.4083
pression	-10.4086
▁Maß	-10.4089
88	-10.4092
▁Klage	-10.4093
▁al	-10.4102
bereich	-10.4105
steht	-10.4113
▁Anteil	-10.4115
▁Serie	-10.4131
ältig	-10.4139
▁Grand	-10.4141
▁joint	-10.4143
▁sea	-10.4145
mitglied	-10.415
rken	-10.4162
▁organisiert	-10.417
▁Mitte	-10.4171
▁Gefühl	-10.4179
▁advantage	-10.4179
▁zumindest	-10.4179
▁driving	-10.4179
▁Zwischen	-10.4179
▁UBS	-10.4179
▁quality	-10.4179
▁Ihnen	-10.4179
▁operate	-10.4179
▁birth	-10.4179
▁Daniel	-10.4179
kunde	-10.4179
▁signed	-10.418
▁daily	-10.4186
▁Früh	-10.4188
related	-10.4188
feier	-10.4189
▁Free	-10.4189
▁aktiv	-10.4189
▁Bezug	-10.4199
▁directly	-10.4206
▁discovered	-10.4209
affe	-10.4211
▁gro	-10.4216
where	-10.422
point	-10.422
▁jede	-10.4232
▁growing	-10.4238
▁Van	-10.4239
▁mayor	-10.4251
profi	-10.4259
▁Kandidat	-10.4267
▁Besucher	-10.4271
ahl	-10.4278
▁businesses	-10.4279
eath	-10.4279
▁Journal	-10.429
▁betroffen	-10.4291
▁irgend	-10.4291
gelöst	-10.4291
temperatur	-10.4291
▁Jahrhundert	-10.4291
▁reagiert	-10.4291
▁restaurant	-10.4291
▁Cameron	-10.4291
▁Quartal	-10.4291
▁CNN	-10.4291
▁Teilnehmer	-10.4291
fällig	-10.4291
▁defeat	-10.4291
▁client	-10.4291
▁erlebt	-10.4291
▁Strecke	-10.4291
▁Social	-10.4291
▁nutzen	-10.4291
▁knew	-10.4291
▁Reporter	-10.4292
▁Secretary	-10.4292
▁Umwelt	-10.4293
durchschnittlich	-10.4294
▁Korea	-10.4294
richtung	-10.4294
▁Geräte	-10.4294
▁mu	-10.4296
▁bestätigte	-10.43
sätze	-10.4303
▁Weiter	-10.4304
▁abuse	-10.4313
▁Gro	-10.4314
▁Verhalten	-10.432
llerdings	-10.4331
▁certainly	-10.4336
zone	-10.4337
team	-10.434
▁launch	-10.4359
lager	-10.4363
▁Roy	-10.4377
▁Essen	-10.4379
▁Open	-10.4381
ished	-10.4393
▁starb	-10.4393
schrei	-10.4395
▁bestätigt	-10.4396
▁Deutschen	-10.4399
▁highly	-10.4402
▁Flüchtlings	-10.4405
▁Gouverneur	-10.4405
▁beispielsweise	-10.4405
▁jüngst	-10.4405
▁Öffentlichkeit	-10.4405
märkte	-10.4405
▁William	-10.4405
▁exactly	-10.4405
▁Christmas	-10.4405
▁Gäste	-10.4405
▁dritten	-10.4406
▁erwarten	-10.4406
▁Schaden	-10.4407
▁drop	-10.4407
▁ändern	-10.4407
▁Wissenschaftler	-10.4409
▁worse	-10.441
▁equal	-10.4415
▁sonst	-10.4415
▁product	-10.4421
▁VW	-10.4429
zeig	-10.4435
▁topic	-10.4439
▁Schulen	-10.4443
▁Stand	-10.4445
▁path	-10.4449
▁raised	-10.4454
schule	-10.4463
Üb	-10.4464
▁Nun	-10.4486
Präsident	-10.4489
▁Dow	-10.4504
▁Unterschied	-10.452
▁celebrate	-10.452
▁conclud	-10.452
▁independent	-10.452
▁intelligence	-10.452
▁fühlt	-10.452
▁wiederholt	-10.452
▁spread	-10.452
▁Another	-10.452
gefordert	-10.452
▁weight	-10.452
▁Burg	-10.4525
▁planet	-10.4531
▁Zugang	-10.4534
pfen	-10.4538
▁Beamten	-10.4542
▁safe	-10.4544
▁Hav	-10.4557
▁46	-10.4558
▁Jugend	-10.456
▁ziehen	-10.4563
▁older	-10.4566
▁Karte	-10.457
▁erstmal	-10.4579
▁size	-10.4579
▁bewusst	-10.4582
final	-10.4617
ovic	-10.4621
▁pain	-10.4631
▁municipal	-10.4633
▁favour	-10.4634
▁Republik	-10.4636
▁Croatia	-10.4636
▁Domspatzen	-10.4636
▁Auswirkungen	-10.4636
▁München	-10.4636
▁analyst	-10.4636
▁committed	-10.4636
▁criticism	-10.4636
▁diplomat	-10.4636
▁choice	-10.4636
▁stimmt	-10.4636
▁Tatsache	-10.4636
▁Karriere	-10.4636
▁Ungarn	-10.4636
▁gezeigt	-10.4636
▁Klima	-10.4636
▁ignor	-10.4636
▁fresh	-10.4636
▁terrorist	-10.4638
▁hearing	-10.4639
▁imagin	-10.4639
▁kaufen	-10.4639
▁1990	-10.464
▁airline	-10.464
phase	-10.4642
▁Barack	-10.4643
bal	-10.4643
▁ruling	-10.4644
▁bringt	-10.4646
▁MP	-10.4646
▁Sohn	-10.4664
kam	-10.4665
▁Anklage	-10.467
▁Stück	-10.4676
▁band	-10.4679
ility	-10.4682
▁Mag	-10.4695
▁zog	-10.4697
▁Kur	-10.4699
▁Sea	-10.4701
▁save	-10.4716
schoss	-10.4724
▁$2	-10.4726
position	-10.4728
▁lies	-10.4734
down	-10.4737
▁Amerika	-10.4749
▁negotiat	-10.4752
▁Einwohner	-10.4754
▁Mexican	-10.4754
▁übrig	-10.4754
▁female	-10.4754
▁usually	-10.4754
▁County	-10.4754
▁village	-10.4754
▁einzelne	-10.4754
▁entdeckt	-10.4754
▁basis	-10.4754
sponsor	-10.4755
▁Touristen	-10.4756
▁schützen	-10.4756
▁transfer	-10.4757
▁passiert	-10.4758
▁1000	-10.476
▁Mike	-10.4761
▁effective	-10.4762
▁Senate	-10.4763
▁bislang	-10.4772
werfen	-10.4773
▁Lind	-10.4773
▁Regeln	-10.4776
welt	-10.4777
▁rück	-10.4778
pping	-10.478
▁student	-10.4785
▁fordert	-10.4788
▁stressed	-10.4788
▁(19	-10.4803
Produktion	-10.4807
▁Wand	-10.4809
▁exam	-10.4813
▁Still	-10.4813
▁users	-10.4818
aga	-10.4819
▁Gemeinschaft	-10.4821
▁confirm	-10.4827
▁Jean	-10.4827
stunde	-10.4834
möglich	-10.4844
▁fine	-10.4844
▁meaning	-10.4854
▁wolle	-10.4864
▁nu	-10.4866
▁Frieden	-10.4867
▁stabil	-10.487
verwaltung	-10.4873
▁Because	-10.4873
▁Bedingungen	-10.4873
▁Ereignis	-10.4873
▁Vergangenheit	-10.4873
▁distribut	-10.4873
▁eröffnet	-10.4873
▁inzwischen	-10.4873
▁guests	-10.4873
▁Fünf	-10.4873
▁Häuser	-10.4873
▁famous	-10.4873
▁connection	-10.4873
▁Täter	-10.4873
terror	-10.4874
▁giving	-10.4875
▁Michel	-10.4875
hänge	-10.4878
▁Abschluss	-10.4878
▁Today	-10.4881
▁beginnen	-10.4882
▁active	-10.4885
▁justice	-10.4888
Design	-10.4892
▁Interessen	-10.4892
▁fix	-10.4895
▁Chor	-10.4898
ube	-10.4899
▁Gesundheit	-10.4904
▁getan	-10.4911
▁zone	-10.4914
For	-10.4914
fur	-10.4923
▁limited	-10.4935
▁aufgenommen	-10.4937
lusi	-10.4941
▁betont	-10.4949
▁singer	-10.4957
hang	-10.496
▁Brücke	-10.4969
▁Most	-10.4979
▁explain	-10.4986
▁commun	-10.4989
▁sat	-10.4991
▁Konflikt	-10.4993
▁Microsoft	-10.4993
▁langfristig	-10.4993
▁occasion	-10.4993
▁proposal	-10.4993
▁regelmäßig	-10.4993
▁örtliche	-10.4993
▁broadcast	-10.4993
▁manchmal	-10.4993
▁natural	-10.4993
▁schedule	-10.4993
▁shopping	-10.4994
▁mountain	-10.4995
▁mitteilte	-10.4995
▁referr	-10.4995
▁investors	-10.4996
▁visitors	-10.4996
stream	-10.4997
▁settle	-10.5
▁Camp	-10.5001
▁nieder	-10.5014
▁Whi	-10.503
40	-10.5033
▁figure	-10.5036
▁doctor	-10.5043
▁schm	-10.5043
▁taxes	-10.5062
ämpfe	-10.5063
gram	-10.5066
▁alter	-10.5079
▁54	-10.5085
bur	-10.5107
ER	-10.5109
▁Trotz	-10.5113
▁dritte	-10.5114
▁Mesotheliom	-10.5115
günstig	-10.5115
▁Moscow	-10.5115
▁erlaubt	-10.5115
▁unabhängig	-10.5115
▁verhindern	-10.5115
▁verursacht	-10.5115
▁ziemlich	-10.5115
zeichen	-10.5115
▁broad	-10.5115
▁verdient	-10.5115
▁wusste	-10.5115
▁Hunderte	-10.5115
▁praise	-10.5116
▁Branche	-10.5116
▁stopped	-10.5117
▁Justice	-10.5117
▁Wahlkampf	-10.5117
▁Standard	-10.5117
▁section	-10.512
▁Schnee	-10.512
▁kurze	-10.5121
hold	-10.5121
▁southern	-10.5123
▁Audi	-10.5126
▁generation	-10.5127
käufe	-10.5131
▁Zustand	-10.5136
▁Front	-10.5138
▁youth	-10.5141
▁tut	-10.515
▁Traum	-10.5156
▁spent	-10.5157
▁launched	-10.5164
▁Pac	-10.5172
mond	-10.5185
▁34	-10.5195
▁affect	-10.5196
▁covered	-10.5219
▁Politiker	-10.5237
▁Größe	-10.5238
▁Turkish	-10.5238
▁UEFA	-10.5238
▁advance	-10.5238
▁defence	-10.5238
▁Moskau	-10.5238
▁reflect	-10.5238
▁located	-10.5238
▁fuhr	-10.5239
▁Tausende	-10.5239
▁gespielt	-10.5239
▁function	-10.524
Agentur	-10.524
▁befinden	-10.524
▁stärker	-10.524
▁Prä	-10.524
▁argue	-10.5241
▁Vertrauen	-10.5242
▁appearance	-10.5242
kirche	-10.5244
▁teilweise	-10.5246
▁Grad	-10.5247
▁langsam	-10.5249
▁38	-10.525
▁dress	-10.5252
▁actor	-10.5253
▁garden	-10.5256
▁recall	-10.5265
deutsch	-10.5266
▁zuletzt	-10.527
gesichts	-10.527
verfahren	-10.5286
▁victim	-10.5287
▁interested	-10.5301
▁prepared	-10.5303
▁Dann	-10.5304
▁Don	-10.5312
▁require	-10.5321
▁Sex	-10.534
▁Wald	-10.5342
▁Beziehungen	-10.5347
▁Well	-10.5354
▁coup	-10.5357
▁Cruise	-10.5363
▁Demonstranten	-10.5363
▁architect	-10.5363
▁leaving	-10.5363
wünscht	-10.5363
▁Brazil	-10.5363
▁Brexit	-10.5363
▁Neymar	-10.5363
bürger	-10.5363
▁Senior	-10.5364
▁Bezirks	-10.5364
Netzwerk	-10.5364
▁Urteil	-10.5364
▁gewann	-10.5364
▁extend	-10.5365
▁Kronen	-10.5365
▁Abgeordneten	-10.5365
▁Text	-10.5365
▁sorgt	-10.5366
▁Direktor	-10.5368
▁plot	-10.5369
▁gesund	-10.537
▁Mein	-10.5372
laden	-10.5376
▁41	-10.5376
▁assist	-10.5379
▁legte	-10.5382
▁camera	-10.5394
gebot	-10.5403
ová	-10.5406
▁mainly	-10.5409
Vor	-10.5427
▁auto	-10.5452
dass	-10.5464
▁concerned	-10.548
kämpft	-10.549
▁Diskussion	-10.549
▁conversation	-10.549
▁expensive	-10.549
▁relationship	-10.549
▁unterschiedlich	-10.549
würfe	-10.549
▁Stephan	-10.549
▁glücklich	-10.549
▁heavy	-10.549
▁university	-10.549
▁berühmt	-10.549
▁Stephen	-10.549
▁balance	-10.549
▁mentioned	-10.549
▁obtain	-10.549
▁schlimm	-10.549
▁kennen	-10.549
▁historische	-10.5492
▁Bundesliga	-10.5492
▁determine	-10.5493
▁Boeing	-10.5497
▁Verfahren	-10.5509
waffe	-10.5511
▁warned	-10.5516
▁jene	-10.5534
▁Web	-10.5579
▁französischen	-10.5583
▁Laden	-10.5584
gekommen	-10.5589
▁Arch	-10.5591
That	-10.5602
▁engineer	-10.5605
streb	-10.5616
▁zusätzliche	-10.5617
▁beschrieb	-10.5618
▁beschäftigt	-10.5618
▁gefragt	-10.5618
▁monitor	-10.5618
▁struggle	-10.5618
▁supplie	-10.5618
▁symbol	-10.5618
▁völlig	-10.5618
▁Schottland	-10.5618
▁beliebt	-10.5618
▁College	-10.5618
▁decline	-10.5618
▁sanction	-10.5618
▁vergessen	-10.5618
▁Gegner	-10.5618
▁verlieren	-10.5619
▁Asyl	-10.5619
▁offensichtlich	-10.562
▁dangerous	-10.562
▁negotiations	-10.562
▁minor	-10.562
wähl	-10.5621
leitung	-10.5622
▁Fälle	-10.5623
▁assume	-10.5624
▁Sanders	-10.5627
▁Perry	-10.5627
▁Tony	-10.5628
▁consist	-10.563
▁bezeichnete	-10.5634
▁initially	-10.5634
▁Ham	-10.5636
▁engine	-10.5636
bedingt	-10.5638
room	-10.5643
▁India	-10.5644
▁fighting	-10.5645
▁tree	-10.565
▁Fans	-10.5651
▁Rand	-10.5664
▁Qua	-10.5682
tief	-10.5683
helf	-10.5688
▁spending	-10.5692
ization	-10.571
gemäß	-10.5739
▁halbe	-10.574
▁Democrat	-10.5741
▁echte	-10.5747
▁Snowden	-10.5748
▁präsentiert	-10.5748
▁begonnen	-10.5748
▁coalition	-10.5748
▁dürfte	-10.5748
▁essential	-10.5748
▁husband	-10.5748
▁penalty	-10.5748
▁software	-10.5748
▁written	-10.5748
▁untersucht	-10.5748
zentrale	-10.5748
spiegel	-10.5748
▁Every	-10.5749
▁banned	-10.5749
▁Eurozone	-10.5751
▁content	-10.5754
▁bull	-10.5756
Mission	-10.5757
▁pub	-10.5758
▁castle	-10.5758
▁solid	-10.576
gewicht	-10.5762
▁cash	-10.5763
▁Stock	-10.577
▁Jack	-10.5779
▁erhält	-10.5786
▁Max	-10.579
zusetzen	-10.579
▁beendet	-10.5792
machen	-10.5793
▁voted	-10.5797
grenze	-10.58
▁concept	-10.5802
▁Summe	-10.5806
▁refugee	-10.5818
▁Hinweis	-10.5828
▁claimed	-10.5829
81	-10.5836
q	-10.5849
▁Sitzung	-10.5867
▁Paniai	-10.588
versammlung	-10.588
▁Ferguson	-10.588
▁Olympische	-10.588
▁Twitch	-10.588
▁consequence	-10.588
▁digital	-10.588
▁frequent	-10.588
▁participants	-10.588
▁scientists	-10.588
▁Valdez	-10.588
anstalt	-10.588
▁AfD	-10.588
▁Stewart	-10.5881
▁retire	-10.5882
▁gerne	-10.5883
▁Flor	-10.5883
▁Gegensatz	-10.5884
▁sale	-10.5886
▁missing	-10.5887
▁cities	-10.5891
▁sozial	-10.5893
▁Kurz	-10.5897
▁fordern	-10.5899
▁highest	-10.59
hnlich	-10.5901
▁meist	-10.5901
phon	-10.5905
▁stone	-10.5908
▁believed	-10.5911
▁Mayor	-10.5911
text	-10.5913
▁River	-10.5914
▁Hong	-10.5915
▁Bord	-10.5923
▁talking	-10.5925
feuer	-10.5933
▁Ausland	-10.5933
▁größer	-10.5938
▁signal	-10.5941
nderungen	-10.5951
▁attempted	-10.5964
▁GB	-10.5986
▁Februar	-10.5989
▁charged	-10.5992
▁selb	-10.6004
▁procedure	-10.6013
▁Debatte	-10.6013
▁commercial	-10.6013
▁province	-10.6013
▁twice	-10.6013
▁Hillary	-10.6013
▁Rekord	-10.6013
▁NHS	-10.6013
▁Kanada	-10.6013
▁Athlet	-10.6013
▁predict	-10.6013
finanzier	-10.6013
▁Heimat	-10.6013
▁restrict	-10.6014
▁Tief	-10.6014
▁versichert	-10.6014
▁oblig	-10.6015
▁Justiz	-10.6017
stätte	-10.6018
Final	-10.6018
▁Zins	-10.6025
▁Palm	-10.6029
▁Ausstellung	-10.6029
▁herum	-10.6032
führt	-10.6035
Aus	-10.6035
▁version	-10.6036
▁warning	-10.6043
Mail	-10.6056
▁endlich	-10.6059
block	-10.6061
Do	-10.609
▁entscheiden	-10.6103
▁eingesetzt	-10.6106
▁Christ	-10.6126
fas	-10.6133
▁Kim	-10.6142
▁Gleich	-10.6145
▁außer	-10.6147
▁Passagier	-10.6148
▁Urlaub	-10.6148
appropriate	-10.6148
▁Ferrell	-10.6148
▁Flughafen	-10.6148
▁YouTube	-10.6148
▁commitment	-10.6148
▁journey	-10.6148
▁Fortschritt	-10.6148
▁türkische	-10.6148
▁Rechnung	-10.6148
▁CBS	-10.6148
▁Veränderung	-10.6148
▁Klaus	-10.6149
▁Platten	-10.6149
▁Winter	-10.6149
▁screen	-10.6149
▁battle	-10.6149
▁Mensch	-10.6151
fläche	-10.6154
▁48	-10.6155
▁2002	-10.6163
beamte	-10.6168
▁Auftrag	-10.6168
▁dachte	-10.6173
book	-10.6177
▁handle	-10.6179
▁Atom	-10.618
haber	-10.618
▁entscheidend	-10.6194
bald	-10.6195
Ja	-10.6196
▁Einheit	-10.6198
presse	-10.6205
▁gone	-10.621
wunde	-10.621
▁Jede	-10.6214
▁below	-10.6214
nderung	-10.6221
18	-10.6223
▁paint	-10.6242
▁dark	-10.6246
▁Organ	-10.6285
▁erwähnt	-10.6285
▁Philip	-10.6285
▁Restaurant	-10.6285
▁anniversary	-10.6285
▁Texas	-10.6285
▁Zweck	-10.6285
▁alternative	-10.6285
▁ticket	-10.6285
▁erinnern	-10.6285
▁square	-10.6285
▁Artikel	-10.6285
▁crowd	-10.6285
▁Centre	-10.6285
▁Great	-10.6285
▁secure	-10.6285
füllen	-10.6286
▁Sprache	-10.6286
▁besucht	-10.6286
▁Fehler	-10.6286
▁perhaps	-10.6287
▁promote	-10.6287
▁brain	-10.6287
▁surgery	-10.6288
▁summit	-10.6288
▁Geschäftsführer	-10.6288
▁division	-10.629
▁sau	-10.6291
There	-10.6293
▁Prag	-10.6294
▁doping	-10.6295
▁structure	-10.6296
▁Leiche	-10.6303
▁Vorfall	-10.6305
▁February	-10.631
▁glass	-10.6313
▁Anlage	-10.6317
▁Kirch	-10.633
solv	-10.6333
▁sort	-10.6347
▁Kong	-10.6352
spür	-10.6354
▁Petr	-10.6376
▁appeared	-10.6382
Unser	-10.6394
▁Yu	-10.6397
Dollar	-10.6418
leute	-10.6419
höchst	-10.6422
klär	-10.6423
brechen	-10.6423
cultural	-10.6424
▁Erhöhung	-10.6424
▁Sinaloa	-10.6424
▁aircraft	-10.6424
▁allgemein	-10.6424
▁perpetrator	-10.6424
▁entertain	-10.6424
▁Follow	-10.6424
▁calcul	-10.6424
▁Dennoch	-10.6424
▁choir	-10.6424
▁Rangers	-10.6424
▁Gerichtshof	-10.6424
▁erhöhen	-10.6424
▁finance	-10.6424
▁Hypo	-10.6424
▁Krebs	-10.6424
▁shape	-10.6424
▁apartment	-10.6424
▁status	-10.6424
▁Rouge	-10.6424
▁Sänger	-10.6424
▁außerhalb	-10.6424
▁Termin	-10.6425
▁selten	-10.6425
▁magazine	-10.6425
▁Games	-10.6425
▁Prague	-10.6425
▁wild	-10.6426
▁Zimmer	-10.6426
▁winning	-10.6427
▁authority	-10.643
▁angesehen	-10.643
wald	-10.6432
▁skill	-10.6433
▁Einkauf	-10.6434
▁finger	-10.6436
Sarah	-10.6436
▁Stimme	-10.6439
▁Vorstellung	-10.644
▁Kino	-10.6443
▁verstehen	-10.6451
schritt	-10.6466
▁flow	-10.6466
▁bekam	-10.647
▁Feier	-10.6472
▁pop	-10.6479
Niederlage	-10.6488
geschoss	-10.6489
▁produced	-10.6493
▁offiziell	-10.65
▁effort	-10.6522
▁rose	-10.6537
▁Ruf	-10.6551
▁alleged	-10.656
Auf	-10.6562
amerika	-10.6563
▁Chelsea	-10.6565
▁Glasgow	-10.6565
▁Strategie	-10.6565
▁Verbraucher	-10.6565
▁domestic	-10.6565
▁industrial	-10.6565
▁purpose	-10.6565
▁sogenannte	-10.6565
▁lediglich	-10.6565
▁proposed	-10.6565
vorsitzende	-10.6565
▁üblich	-10.6565
▁bedeuten	-10.6565
▁affair	-10.6565
▁adult	-10.6565
geleitet	-10.6565
▁Manager	-10.6565
▁geschlossen	-10.6565
▁cream	-10.6565
▁Johann	-10.6565
▁Zusammenhang	-10.6565
▁dropped	-10.6566
▁Lower	-10.6566
▁ermöglicht	-10.6566
▁Golf	-10.6566
▁entsprechende	-10.6567
▁repeat	-10.6567
6%	-10.6568
▁blame	-10.657
▁labor	-10.6572
▁airport	-10.6572
▁Umsatz	-10.6573
▁range	-10.6576
▁internal	-10.6579
▁zunehmend	-10.6584
▁Apple	-10.6585
▁shut	-10.6586
▁Music	-10.6594
Abgeordnete	-10.6595
▁winter	-10.6597
▁manche	-10.6602
▁specialist	-10.6613
▁42	-10.6619
16	-10.6631
post	-10.6632
▁Besuch	-10.6647
nahm	-10.6647
100	-10.6651
▁Over	-10.6668
▁page	-10.6681
extrem	-10.669
Du	-10.6693
▁Mord	-10.6698
fassung	-10.6704
▁Hospital	-10.6708
▁Metcash	-10.6708
▁angeklagt	-10.6708
▁atmosphere	-10.6708
▁beschuldigt	-10.6708
▁erheblich	-10.6708
▁gefährlich	-10.6708
▁überraschend	-10.6708
▁Amazon	-10.6708
▁spokesperson	-10.6708
▁abgeschlossen	-10.6708
▁article	-10.6708
▁verboten	-10.6708
▁dennoch	-10.6708
▁adopt	-10.6709
▁kostet	-10.6709
▁install	-10.671
▁Sonder	-10.671
▁Grundlage	-10.6711
zimmer	-10.6718
▁seeking	-10.6718
▁tough	-10.6721
▁Fried	-10.6728
▁applie	-10.6729
gefangen	-10.6729
klasse	-10.673
▁Ruhe	-10.6737
▁reaction	-10.6739
treffen	-10.674
▁Western	-10.6742
▁tie	-10.6747
▁registered	-10.675
geteilt	-10.6774
lehnt	-10.6776
▁radio	-10.6783
▁Kno	-10.6803
▁basic	-10.6813
lett	-10.6816
▁contribut	-10.6825
Grün	-10.6845
▁object	-10.6849
▁Scott	-10.6852
▁Herausforderung	-10.6853
▁Zeichen	-10.6853
▁activities	-10.6853
▁surrounding	-10.6853
▁technical	-10.6853
▁virtual	-10.6853
▁interpret	-10.6853
▁permanent	-10.6853
▁Hersteller	-10.6853
▁Interior	-10.6853
▁review	-10.6853
▁fifth	-10.6853
▁nannte	-10.6853
CDU	-10.6853
schreibung	-10.6853
▁verkaufen	-10.6853
▁element	-10.6853
▁emissions	-10.6853
▁Irak	-10.6854
▁Grünen	-10.6855
▁43	-10.6856
▁exception	-10.6856
▁Finanzierung	-10.6859
▁flat	-10.6859
▁powerful	-10.686
head	-10.687
▁Zudem	-10.6871
▁dauert	-10.6872
Weiß	-10.6876
▁Sand	-10.6877
▁Dort	-10.6881
kontroll	-10.6883
schlü	-10.6884
▁environment	-10.6906
▁ideal	-10.6966
▁Marine	-10.6967
▁Fast	-10.6972
letzt	-10.6977
ländische	-10.6986
breite	-10.6986
▁ältere	-10.6992
iving	-10.6996
▁occur	-10.6998
▁oppos	-10.6998
▁Korruption	-10.7
drückt	-10.7
▁Parliament	-10.7
▁Saxony	-10.7
▁beobachtet	-10.7
▁injury	-10.7
▁numerous	-10.7
▁politics	-10.7
▁strategy	-10.7
▁ungefähr	-10.7
▁Chancellor	-10.7
▁concert	-10.7
▁Bücher	-10.7
▁verhaftet	-10.7
▁Niveau	-10.7
▁voting	-10.7
▁entstanden	-10.7
▁sterben	-10.7
▁Letzte	-10.7001
▁miles	-10.7001
▁Autobahn	-10.7002
▁Town	-10.7002
▁Geschlecht	-10.7003
▁verlangt	-10.7003
▁intensiv	-10.7003
▁boss	-10.7003
▁gap	-10.7004
▁Lawson	-10.7004
▁exhibition	-10.7004
▁Meister	-10.7005
▁window	-10.7005
ehmer	-10.7005
▁bemerkt	-10.7006
▁Option	-10.7007
▁violat	-10.7009
▁offenbar	-10.7011
▁Nachricht	-10.7011
▁Expert	-10.7012
▁Biles	-10.7012
▁verlor	-10.7013
▁coast	-10.7015
▁throughout	-10.7015
▁Palu	-10.7023
▁Hochschul	-10.7026
▁quot	-10.7032
▁Oberste	-10.7039
▁bag	-10.7057
▁Tisch	-10.7068
take	-10.7071
But	-10.7094
eihen	-10.7098
▁39	-10.7102
▁37	-10.7103
▁decide	-10.7107
▁rare	-10.7146
maßnahmen	-10.7149
▁Software	-10.7149
▁activists	-10.7149
▁activity	-10.7149
▁degrees	-10.7149
▁helicopter	-10.7149
▁komplett	-10.7149
▁physical	-10.7149
▁refused	-10.7149
▁slightly	-10.7149
▁verpflichtet	-10.7149
▁Global	-10.7149
▁ursprünglich	-10.7149
▁simple	-10.7149
▁Celtic	-10.7149
▁Zweifel	-10.7149
▁Foreign	-10.7149
▁flood	-10.7149
▁fraud	-10.7149
▁Pflicht	-10.7149
▁Earth	-10.7149
▁Rhine	-10.7149
▁hofft	-10.715
▁befand	-10.715
▁critical	-10.715
▁Handlung	-10.715
▁remind	-10.7151
▁Bundesstaat	-10.7152
▁master	-10.7152
organisation	-10.7153
▁Voll	-10.7153
gefunden	-10.7154
▁Gaza	-10.7154
▁fail	-10.7155
krieg	-10.7156
▁Einrichtung	-10.7156
▁gefallen	-10.7167
▁Ausnahme	-10.717
▁davor	-10.717
▁Angestellte	-10.7171
▁traditionell	-10.7171
▁49	-10.7172
▁Luc	-10.7205
▁mini	-10.7206
sicherheit	-10.7219
▁hike	-10.7237
▁Messe	-10.7242
▁Pala	-10.7251
▁accus	-10.7255
▁arrive	-10.7259
▁Rub	-10.7279
▁Produkt	-10.7292
▁streng	-10.7294
▁Anhörung	-10.73
▁Migranten	-10.73
▁conclusion	-10.73
▁equipment	-10.73
▁initiative	-10.73
▁neighbor	-10.73
▁Bühne	-10.7301
▁California	-10.7301
▁Egypt	-10.7301
▁infection	-10.7301
▁tweet	-10.7301
▁Management	-10.7301
▁Championship	-10.7301
▁cheap	-10.7301
▁expand	-10.7301
hersteller	-10.7301
▁bought	-10.7301
▁Inflation	-10.7301
▁stories	-10.7301
▁draft	-10.7301
industrie	-10.7301
▁Schmerz	-10.7301
▁Deshalb	-10.7301
▁Vorstand	-10.7301
▁guide	-10.7301
▁Nachbarn	-10.7301
▁zitiert	-10.7301
▁Manuel	-10.7301
▁geboren	-10.7301
▁instance	-10.7302
strahl	-10.7303
▁leadership	-10.7304
▁behandelt	-10.7304
place	-10.7305
▁Verbrechen	-10.7306
▁stake	-10.7307
▁Vorjahr	-10.7309
riminal	-10.7309
▁apparently	-10.731
▁Auftritt	-10.7312
▁tight	-10.7314
▁Information	-10.7317
▁Abkommen	-10.7322
▁Marco	-10.7323
▁Profi	-10.7324
bleib	-10.7325
▁Aldi	-10.7329
▁Garten	-10.7342
▁Ganz	-10.7344
▁Insel	-10.7367
▁Liste	-10.7394
▁environmental	-10.7398
▁initial	-10.7436
western	-10.7446
▁danger	-10.7453
▁Angelegenheit	-10.7454
▁Demokraten	-10.7454
▁Koalition	-10.7454
▁Persönlichkeit	-10.7454
▁collapse	-10.7454
▁gehabt	-10.7454
▁infrastructure	-10.7454
▁kürzlich	-10.7454
▁Erinnerung	-10.7454
▁beyond	-10.7454
▁Spezial	-10.7454
▁Ausbildung	-10.7454
▁spirit	-10.7454
▁Ermittlungen	-10.7454
▁rechnen	-10.7454
▁kündigte	-10.7454
▁approved	-10.7454
▁Mitteilung	-10.7454
▁session	-10.7454
▁stolz	-10.7455
▁Durchschnitt	-10.7455
▁verstärkt	-10.7456
▁occurred	-10.7456
▁informiert	-10.7457
▁1980	-10.7462
▁Blue	-10.7463
Bundes	-10.7464
flug	-10.7466
▁legend	-10.7467
▁Year	-10.7476
▁protesters	-10.7479
▁increasingly	-10.7483
▁dance	-10.7504
▁Lehr	-10.7515
▁register	-10.7565
▁announc	-10.7565
▁cast	-10.7574
▁classic	-10.7577
▁stress	-10.7588
ologie	-10.7593
▁euro	-10.7601
▁Budget	-10.7611
▁Business	-10.7611
▁Infrastruktur	-10.7611
▁Kapital	-10.7611
▁Prentiss	-10.7611
▁Riodoce	-10.7611
▁Zentrum	-10.7611
▁ambassador	-10.7611
▁behaviour	-10.7611
▁corruption	-10.7611
▁electronic	-10.7611
▁introduced	-10.7611
▁maximum	-10.7611
▁mesothelioma	-10.7611
▁operating	-10.7611
▁machine	-10.7611
▁railway	-10.7611
Diplomat	-10.7611
▁1999	-10.7611
▁herself	-10.7611
▁umstritten	-10.7611
▁Volkswagen	-10.7611
▁anonym	-10.7611
▁presence	-10.7611
▁micro	-10.7611
▁Schluss	-10.7611
▁spricht	-10.7611
▁besetzt	-10.7611
▁Zentralbank	-10.7611
▁Rückkehr	-10.7613
▁breath	-10.7613
▁prä	-10.7614
▁nature	-10.7615
ologische	-10.7623
▁Guard	-10.7624
▁elf	-10.7628
▁enthalten	-10.7638
▁regime	-10.7642
▁Beziehung	-10.7642
▁47	-10.7643
▁Vice	-10.7647
▁parliamentar	-10.7648
▁significantly	-10.765
force	-10.7651
▁mine	-10.7663
town	-10.7664
zugehen	-10.7668
Rakete	-10.7681
▁51	-10.7697
9%	-10.7702
▁Regional	-10.771
▁employee	-10.7766
▁Hungarian	-10.7769
▁Meanwhile	-10.7769
▁beautiful	-10.7769
▁finanzielle	-10.7769
▁nötig	-10.7769
▁plötzlich	-10.7769
▁possibility	-10.7769
▁surface	-10.7769
▁Stimmung	-10.7769
▁climb	-10.7769
▁pilot	-10.7769
▁zufrieden	-10.7769
▁Florida	-10.7769
▁Website	-10.7769
▁Kreuz	-10.7769
▁robot	-10.777
▁comfort	-10.777
▁moving	-10.777
▁Schwimm	-10.777
▁Meilen	-10.7771
▁Psycho	-10.7771
▁habit	-10.7771
▁Einfluss	-10.7773
schicht	-10.7775
▁Antoni	-10.7776
▁wachsende	-10.7777
▁Victoria	-10.7779
▁riesige	-10.778
rücken	-10.7781
▁Vorgehen	-10.7783
bezogen	-10.7792
▁bisschen	-10.7796
rennen	-10.7796
▁vice	-10.7799
▁schien	-10.7801
▁mental	-10.782
▁85	-10.7821
▁blow	-10.7822
viel	-10.7833
▁provid	-10.7843
inistra	-10.7853
▁ernst	-10.7853
▁Quelle	-10.7876
▁800	-10.7901
haupt	-10.7919
ohne	-10.7919
sekretär	-10.7931
▁Francisco	-10.7931
▁Public	-10.7931
▁benötigt	-10.7931
▁eindeutig	-10.7931
▁erforderlich	-10.7931
▁gezwungen	-10.7931
▁verabschiedet	-10.7931
▁volunteer	-10.7931
▁Drittel	-10.7931
▁length	-10.7931
▁voraussichtlich	-10.7931
bedingungen	-10.7931
▁Assange	-10.7931
▁eventually	-10.7931
▁deputy	-10.7931
▁Garcia	-10.7931
▁Maryland	-10.7931
▁pretty	-10.7931
▁Health	-10.7931
▁Tesla	-10.7931
▁gegründet	-10.7931
▁ruhig	-10.7931
▁bond	-10.7932
▁brief	-10.7935
▁index	-10.7936
▁prize	-10.7936
▁governor	-10.7944
▁Lord	-10.7946
▁immigration	-10.7947
▁losing	-10.7948
▁Feuer	-10.795
▁Aufnahme	-10.795
morgen	-10.795
▁hot	-10.7951
▁prime	-10.7952
▁Albert	-10.7955
▁update	-10.7955
▁impression	-10.7961
▁dozen	-10.7963
▁hair	-10.7967
▁Six	-10.7981
▁Box	-10.7983
▁technische	-10.7986
▁Ehre	-10.8024
rgio	-10.8043
▁involve	-10.8053
steiger	-10.8083
▁Zelle	-10.8091
▁separatist	-10.8095
▁Abstimmung	-10.8095
▁Architekt	-10.8095
▁Bemühungen	-10.8095
▁Bulgaria	-10.8095
▁Investment	-10.8095
▁Ivanov	-10.8095
▁Norwegian	-10.8095
▁betrifft	-10.8095
▁compensation	-10.8095
▁correspond	-10.8095
▁deficit	-10.8095
▁opponent	-10.8095
▁praktisch	-10.8095
▁principle	-10.8095
▁zerstört	-10.8095
▁Portugal	-10.8095
▁communication	-10.8095
▁Material	-10.8095
▁destroy	-10.8095
▁Versicherung	-10.8095
▁Besonder	-10.8095
versicherung	-10.8095
▁fulfil	-10.8095
▁weather	-10.8095
▁virus	-10.8095
▁trading	-10.8095
▁knock	-10.8095
▁großartige	-10.8095
▁erklären	-10.8095
▁debut	-10.8095
▁Leitung	-10.8095
▁Arbeitsplätze	-10.8095
▁unterwegs	-10.8096
▁medizinische	-10.8096
▁alarm	-10.8098
▁Rückgang	-10.81
▁photograph	-10.8101
▁Bundestag	-10.8106
▁Zeitraum	-10.8107
▁sitzen	-10.8112
▁citizen	-10.813
▁sank	-10.8153
▁58	-10.8157
▁Earl	-10.8162
▁historical	-10.8174
▁Israeli	-10.8176
studie	-10.8196
streit	-10.82
▁discover	-10.8217
▁Million	-10.8223
▁scar	-10.8258
▁Hunt	-10.826
▁Weihnachts	-10.8261
Veröffentlichung	-10.8261
▁Demokratie	-10.8261
▁Details	-10.8261
▁Hongkong	-10.8261
▁Ukrainian	-10.8261
▁choose	-10.8261
▁college	-10.8261
▁complex	-10.8261
▁dinosaur	-10.8261
▁encourage	-10.8261
▁experiment	-10.8261
▁legislation	-10.8261
▁militärische	-10.8261
▁verbessern	-10.8261
vertreter	-10.8261
▁Louisiana	-10.8261
▁display	-10.8261
▁steigt	-10.8261
▁vorbereitet	-10.8261
▁Stanley	-10.8261
▁Regensburg	-10.8261
▁benutzt	-10.8261
▁colour	-10.8261
▁ABC	-10.8261
▁Unabhängigkeit	-10.8262
▁Wirkung	-10.8262
▁Davis	-10.8262
▁storm	-10.8262
▁organized	-10.8262
▁Planeten	-10.8263
▁Kelly	-10.8263
▁Scottish	-10.8263
▁Grundstück	-10.8263
▁folgende	-10.8264
▁Verletzte	-10.8264
▁bewegen	-10.8266
▁Schuss	-10.8267
▁shock	-10.8267
▁Freiheit	-10.8269
▁lernen	-10.8269
▁gelten	-10.8272
▁Pfarr	-10.8273
operation	-10.828
▁Carson	-10.8281
problem	-10.8284
▁Human	-10.8287
▁Student	-10.8293
▁trend	-10.8293
▁contribution	-10.8293
▁heiß	-10.8293
ffekt	-10.8297
▁teach	-10.8301
▁Shaw	-10.831
▁südlich	-10.8333
▁map	-10.8354
mong	-10.8374
sorge	-10.8375
▁reveal	-10.8385
same	-10.8396
sprache	-10.8401
ountain	-10.8428
▁Aufmerksamkeit	-10.8431
▁Dinosaurier	-10.8431
▁Eröffnung	-10.8431
▁Prüfung	-10.8431
▁Tschechien	-10.8431
▁approval	-10.8431
▁erläutert	-10.8431
▁participate	-10.8431
▁properties	-10.8431
▁referendum	-10.8431
▁tödlich	-10.8431
▁ungewöhnlich	-10.8431
▁zählt	-10.8431
▁Aktivität	-10.8431
▁Anbieter	-10.8431
▁bodies	-10.8431
▁doppelt	-10.8431
▁längst	-10.8431
▁Zeugen	-10.8431
▁myself	-10.8431
▁1998	-10.8431
▁precise	-10.8431
▁switch	-10.8431
▁Anwalt	-10.8431
pflicht	-10.8431
▁forecast	-10.8431
▁Wunsch	-10.8431
▁Anhänger	-10.8431
▁Zivil	-10.8431
▁multi	-10.8431
▁shark	-10.8431
▁Chief	-10.8431
▁angeboten	-10.8431
▁inflation	-10.8431
▁emerge	-10.8431
▁verbreitet	-10.8431
▁afford	-10.8432
▁jump	-10.8432
▁elected	-10.8432
▁giant	-10.8432
▁trail	-10.8433
▁Hamas	-10.844
▁bezahlt	-10.844
▁Modern	-10.8441
▁Finger	-10.8446
▁prefer	-10.8449
Flüge	-10.845
▁77	-10.8469
▁proud	-10.847
▁französische	-10.8478
▁Kunde	-10.848
eißen	-10.8481
▁rechtlich	-10.8494
estate	-10.8512
ruhe	-10.8524
äufe	-10.8531
wearing	-10.8552
truction	-10.8567
▁derzeitige	-10.8575
▁quick	-10.8587
händler	-10.8594
▁generat	-10.8597
Champion	-10.8598
patient	-10.86
▁Financial	-10.8603
▁Mississippi	-10.8603
▁Stellungnahme	-10.8603
▁capacity	-10.8603
▁circumstances	-10.8603
▁comparison	-10.8603
▁mexikanische	-10.8603
▁policies	-10.8603
▁resources	-10.8603
▁responsibility	-10.8603
▁silence	-10.8603
▁stellvertretend	-10.8603
▁Beschwerde	-10.8603
▁Gehirn	-10.8603
▁Middle	-10.8603
▁Verhältnis	-10.8603
▁1991	-10.8603
▁1970	-10.8603
▁correct	-10.8603
kontakt	-10.8603
wärts	-10.8603
▁Missouri	-10.8603
▁disorder	-10.8603
▁Christoph	-10.8603
▁wesentlich	-10.8603
▁century	-10.8603
▁Beijing	-10.8603
▁package	-10.8603
besitzer	-10.8603
▁distance	-10.8603
nachmittag	-10.8603
▁Konzert	-10.8603
▁erlitt	-10.8604
rgebnis	-10.8604
▁facing	-10.8604
▁José	-10.8604
▁split	-10.8604
▁renew	-10.8604
strecke	-10.8605
▁Nummer	-10.8606
▁normalerweise	-10.8606
▁fence	-10.8607
▁guy	-10.8607
Roboter	-10.8609
▁Peking	-10.861
▁luck	-10.8611
▁Sender	-10.8613
▁leak	-10.8614
▁Nachfrage	-10.8614
▁detect	-10.8616
▁tear	-10.8616
▁Verband	-10.8616
hielt	-10.8619
▁Strom	-10.8626
▁Chris	-10.8629
Spiel	-10.8631
▁zweimal	-10.8633
▁remark	-10.8637
▁payment	-10.8676
Fehl	-10.8697
reifen	-10.8726
▁Fisch	-10.8728
lässlich	-10.8739
▁Kontroll	-10.8759
▁govern	-10.876
▁bisherige	-10.8762
▁Alexander	-10.8779
▁Analysten	-10.8779
▁Capital	-10.8779
▁Ermittler	-10.8779
▁Praxis	-10.8779
▁exercise	-10.8779
▁headquarters	-10.8779
▁injuries	-10.8779
▁revenue	-10.8779
▁suspend	-10.8779
▁täglich	-10.8779
fahrzeug	-10.8779
medaille	-10.8779
▁Umgebung	-10.8779
▁unusual	-10.8779
▁acquir	-10.8779
▁cinema	-10.8779
▁fruit	-10.8779
▁verfolgt	-10.8779
risiko	-10.8779
▁honest	-10.8779
▁punish	-10.8779
▁trigger	-10.8779
▁CEO	-10.8779
▁Louis	-10.8779
▁ermöglichen	-10.8779
▁Training	-10.8779
▁damalige	-10.8779
▁Papier	-10.8779
▁admit	-10.878
▁beschlossen	-10.878
▁Typ	-10.8781
▁teilnehmen	-10.8781
▁Darüber	-10.8782
▁anschließend	-10.8782
▁sorgen	-10.8782
▁Saint	-10.8783
▁Forderung	-10.8784
▁steel	-10.8784
▁novel	-10.8786
eife	-10.8787
connect	-10.8789
▁denied	-10.8795
▁Villa	-10.8797
schütze	-10.8803
▁agent	-10.8803
▁geraten	-10.8804
▁Dank	-10.881
▁Water	-10.8817
▁pair	-10.8837
witt	-10.8867
erfolg	-10.8874
▁2,5	-10.8898
▁führende	-10.8899
approximately	-10.8957
cDonald	-10.8957
polizei	-10.8957
▁Betroffen	-10.8957
▁Canadian	-10.8957
▁Missbrauch	-10.8957
▁Science	-10.8957
▁Snapchat	-10.8957
▁Verbesserung	-10.8957
▁assault	-10.8957
▁befragt	-10.8957
▁perspective	-10.8957
▁spokeswoman	-10.8957
▁stretch	-10.8957
▁unemployment	-10.8957
▁verkündet	-10.8957
▁zwölf	-10.8957
▁Oxford	-10.8957
▁background	-10.8957
▁competitive	-10.8957
▁trägt	-10.8957
rüstung	-10.8957
▁nominee	-10.8957
▁relations	-10.8957
▁importance	-10.8957
▁prominent	-10.8957
▁urban	-10.8957
▁competitor	-10.8957
▁Hesemann	-10.8957
▁method	-10.8957
▁Gewicht	-10.8957
▁contrast	-10.8957
▁Instead	-10.8957
▁Dutzend	-10.8957
▁Geburt	-10.8957
▁IGA	-10.8957
gefühl	-10.8957
▁critics	-10.8957
hether	-10.8957
▁Before	-10.8958
▁dinner	-10.8958
Chairman	-10.8958
▁married	-10.8958
▁Pilot	-10.8959
▁Tradition	-10.8959
▁command	-10.8959
▁compli	-10.8959
▁opposite	-10.8959
▁freedom	-10.8959
▁höchsten	-10.896
pire	-10.8961
▁vollständig	-10.8961
▁Überleben	-10.8962
▁dramatic	-10.8963
▁Island	-10.8966
▁Fox	-10.8967
▁teure	-10.8967
zugeben	-10.8968
▁Nobel	-10.897
▁Warren	-10.8979
direkt	-10.8993
▁Held	-10.8994
Fluggesellschaft	-10.9046
▁Küche	-10.9052
modell	-10.9072
aufnahme	-10.9072
Akt	-10.908
ologe	-10.908
kontrolle	-10.91
▁custom	-10.9131
cession	-10.9133
erhöhung	-10.9139
rmittlung	-10.9139
volving	-10.9139
▁Kroatien	-10.9139
▁Liverpool	-10.9139
▁Revolution	-10.9139
▁gathered	-10.9139
▁supposed	-10.9139
▁channel	-10.9139
▁erkennen	-10.9139
▁ministry	-10.9139
▁supply	-10.9139
▁Three	-10.9139
▁advertising	-10.9139
▁captain	-10.9139
schaftskandidat	-10.9139
▁Bewerb	-10.9139
▁Käufer	-10.9139
▁managing	-10.9139
▁getestet	-10.9139
fährt	-10.9139
▁shift	-10.9139
▁Nigeria	-10.9139
▁Kamera	-10.9139
▁verwenden	-10.9139
▁mittlerweile	-10.914
▁corner	-10.914
▁Konsum	-10.9141
▁lift	-10.9141
▁extent	-10.9141
schirm	-10.9142
▁wählen	-10.9144
Fraktion	-10.9144
▁studies	-10.9144
▁blue	-10.9145
▁dauern	-10.9149
▁Stahl	-10.9156
beruf	-10.9158
▁Eindruck	-10.9158
▁dahin	-10.9159
grüne	-10.9164
▁Georgia	-10.9175
gesagt	-10.9178
New	-10.918
▁surge	-10.92
proved	-10.9242
▁Kei	-10.9261
geladen	-10.9273
▁Förder	-10.929
schild	-10.9299
macher	-10.9309
▁construct	-10.9318
▁frisch	-10.9321
wache	-10.9321
plätze	-10.9323
▁Zentral	-10.9324
▁Bewohner	-10.9324
▁Brussels	-10.9324
▁Douglas	-10.9324
▁Economic	-10.9324
▁Geheimdienst	-10.9324
▁McCain	-10.9324
▁Nevertheless	-10.9324
▁confidence	-10.9324
▁demonstration	-10.9324
▁prohibit	-10.9324
▁reagieren	-10.9324
▁subsequent	-10.9324
▁Gelegenheit	-10.9324
▁allegations	-10.9324
▁coffee	-10.9324
▁knowledge	-10.9324
▁verfügt	-10.9324
▁survive	-10.9324
▁unmittelbar	-10.9324
▁Etwa	-10.9324
▁multiple	-10.9324
▁Benutzer	-10.9324
Infektion	-10.9324
▁album	-10.9324
▁FDP	-10.9324
▁squad	-10.9324
▁Stefan	-10.9324
▁constant	-10.9324
▁Reuters	-10.9324
▁Behauptung	-10.9324
▁geändert	-10.9325
▁Freude	-10.9325
▁clinic	-10.9325
▁besuchen	-10.9326
▁Tigers	-10.9326
▁Valley	-10.9327
ville	-10.9327
▁Standort	-10.9327
▁fuel	-10.9327
▁ehrlich	-10.9328
▁Graham	-10.9328
▁roof	-10.9329
trauen	-10.933
▁Boot	-10.9334
▁leisten	-10.9334
▁travelling	-10.9336
▁Niko	-10.9339
▁forget	-10.934
▁steigende	-10.9341
▁Miller	-10.9343
▁vierte	-10.9347
weisung	-10.9362
▁Wagen	-10.9363
politische	-10.9366
What	-10.9366
gibt	-10.9368
▁investiert	-10.9422
▁süd	-10.9433
▁Linke	-10.944
▁publish	-10.9467
▁warnte	-10.9509
▁Elektro	-10.9512
▁Migration	-10.9513
▁Erdbeben	-10.9513
▁Verantwortung	-10.9513
▁alcohol	-10.9513
▁collision	-10.9513
▁elektronische	-10.9513
▁fundamental	-10.9513
▁gemeldet	-10.9513
▁opportunities	-10.9513
▁suicide	-10.9513
▁troops	-10.9513
▁trouble	-10.9513
▁unglaublich	-10.9513
▁immune	-10.9513
▁typisch	-10.9513
▁Nicola	-10.9513
schätzen	-10.9513
▁DFB	-10.9513
▁Griff	-10.9513
▁Medical	-10.9513
▁sharp	-10.9513
▁trifft	-10.9513
▁Cross	-10.9513
▁Liefer	-10.9513
▁überzeugt	-10.9513
▁gestiegen	-10.9514
▁kontrolliert	-10.9514
▁Edward	-10.9514
▁valid	-10.9514
▁communities	-10.9514
▁Qualität	-10.9514
▁hurt	-10.9515
▁Vision	-10.9516
▁plus	-10.9516
▁highlight	-10.9517
▁objective	-10.9518
▁kids	-10.9518
▁fellow	-10.9519
▁severe	-10.952
▁flee	-10.9521
▁Ministerium	-10.9524
▁Baby	-10.9526
▁Monti	-10.9528
lohn	-10.9535
▁Wetter	-10.9536
▁Trend	-10.9541
▁creation	-10.9541
wacht	-10.9551
Regierung	-10.9559
▁Szene	-10.9567
kret	-10.9615
▁Außenminister	-10.9634
▁hunt	-10.969
▁Atmosphäre	-10.9705
▁Brüssel	-10.9705
▁Demonstration	-10.9705
▁Engagement	-10.9705
▁Hintergrund	-10.9705
▁Montreal	-10.9705
▁clothes	-10.9705
▁emphasis	-10.9705
▁entwickeln	-10.9705
▁independence	-10.9705
▁recognise	-10.9705
▁spezielle	-10.9705
▁territory	-10.9705
▁Überwachung	-10.9705
▁Ethiopia	-10.9705
▁Nachmittag	-10.9705
▁Pruitt	-10.9705
▁democratic	-10.9705
▁interessant	-10.9705
▁Doppel	-10.9705
▁konkret	-10.9705
▁Zehn	-10.9705
▁Analyse	-10.9705
▁BMW	-10.9705
▁Spaß	-10.9705
▁stattfinden	-10.9705
▁betrug	-10.9705
▁EPA	-10.9705
▁betrachtet	-10.9705
▁Herbst	-10.9705
▁Twesten	-10.9705
mächtig	-10.9706
▁gekauft	-10.9706
▁droht	-10.9706
▁Kenya	-10.9706
▁Fiji	-10.9706
geschichte	-10.9706
▁Thus	-10.9707
▁erscheinen	-10.9709
▁calm	-10.9709
ntsprechend	-10.9711
wissenschaftlich	-10.9712
▁Wohl	-10.9712
▁rally	-10.9713
▁employment	-10.9714
▁Ellis	-10.9715
▁erfolgt	-10.9719
▁establishment	-10.9725
▁Arzt	-10.9733
züge	-10.9743
▁Long	-10.9747
▁solve	-10.9808
residential	-10.9828
treue	-10.988
▁Victor	-10.9897
▁versammelt	-10.9901
▁Alkohol	-10.9901
▁Hubschrauber	-10.9901
▁Integration	-10.9901
▁Konzept	-10.9901
▁Mecklenburg	-10.9901
▁corporate	-10.9901
▁definitely	-10.9901
▁exclusive	-10.9901
▁guarantee	-10.9901
▁identify	-10.9901
▁liquid	-10.9901
▁telephone	-10.9901
▁verteidigt	-10.9901
▁withdraw	-10.9901
▁Ordnung	-10.9901
▁Tätigkeit	-10.9901
▁Wechsel	-10.9901
▁australische	-10.9901
▁disappear	-10.9901
▁perfekt	-10.9901
▁tournament	-10.9901
konzern	-10.9901
▁honour	-10.9901
▁meldet	-10.9901
▁Tweet	-10.9901
kommission	-10.9901
▁Nachfolger	-10.9901
▁Khmer	-10.9901
▁ersetzt	-10.9901
▁Pelta	-10.9902
forschung	-10.9902
▁Befrag	-10.9903
▁Königreich	-10.9904
▁unknown	-10.9905
▁secretary	-10.9906
Off	-10.9906
▁burn	-10.9906
▁Indien	-10.9907
▁dadurch	-10.9907
▁cooperation	-10.9909
▁Breit	-10.991
▁Vize	-10.9915
▁Theater	-10.9918
▁kauft	-10.9934
Staat	-10.9952
Team	-10.9956
▁Express	-10.9964
pflege	-10.9973
▁schaffte	-10.9992
▁Ecke	-10.9993
ausgabe	-10.9995
▁origin	-11.0026
▁klein	-11.0033
trove	-11.0048
▁Sachs	-11.0078
nsgesamt	-11.0101
Kapitän	-11.0101
ström	-11.0101
stöße	-11.0101
▁Australien	-11.0101
▁Düsseldorf	-11.0101
▁Heathrow	-11.0101
▁Händler	-11.0101
▁Smartphone	-11.0101
▁Society	-11.0101
▁Tsunami	-11.0101
▁Wikileaks	-11.0101
▁advice	-11.0101
▁arrival	-11.0101
▁beschreibt	-11.0101
▁controversial	-11.0101
▁recognize	-11.0101
▁reference	-11.0101
▁unclear	-11.0101
verletzung	-11.0101
▁Tränen	-11.0101
gemeinde	-11.0101
prozess	-11.0101
▁klassische	-11.0101
▁1994	-11.0101
▁Truppen	-11.0101
▁Flucht	-11.0101
▁Gabriel	-11.0101
▁congress	-11.0101
▁straight	-11.0101
▁nomination	-11.0101
▁geschickt	-11.0101
▁wheel	-11.0101
▁Vereinbarung	-11.0101
▁Andreas	-11.0101
▁Otmar	-11.0101
▁Probst	-11.0101
▁entrance	-11.0101
▁religio	-11.0101
▁Tonnen	-11.0102
▁insisted	-11.0102
▁Dream	-11.0102
flugzeug	-11.0102
▁mistake	-11.0102
▁ernsthaft	-11.0102
möglichkeit	-11.0103
▁kilometres	-11.0103
▁Wenger	-11.0103
▁Work	-11.0103
▁Costa	-11.0104
▁2:0	-11.0104
▁informed	-11.0105
▁Konrad	-11.0109
▁UNO	-11.0109
▁resolve	-11.0109
▁nearby	-11.0111
geklärt	-11.0119
graben	-11.0121
nyone	-11.0144
relatively	-11.0145
Bild	-11.0162
▁Südafrika	-11.0166
ürde	-11.0169
▁tip	-11.0196
ologist	-11.0203
klagen	-11.0251
stattung	-11.0298
▁Mercedes	-11.0305
▁Römer	-11.0305
▁Schlüssel	-11.0305
▁uncertain	-11.0305
▁Feuerwehr	-11.0305
▁Philadelphia	-11.0305
▁Regisseur	-11.0305
▁Thanks	-11.0305
▁Verwendung	-11.0305
▁geschehen	-11.0305
▁kompliziert	-11.0305
▁schreibt	-11.0305
▁virtuelle	-11.0305
▁Unternehmer	-11.0305
▁science	-11.0305
▁Café	-11.0305
▁Sanktionen	-11.0305
▁drove	-11.0305
▁editor	-11.0305
▁Prince	-11.0305
helm	-11.0305
▁retail	-11.0306
▁illness	-11.0306
▁guard	-11.0306
▁Phase	-11.0306
▁kostenlos	-11.0306
▁tunnel	-11.0306
▁combat	-11.0307
▁Dorf	-11.0307
▁Absicht	-11.0307
▁darstellt	-11.0307
▁ongoing	-11.0307
▁threatened	-11.0307
▁Dreh	-11.0308
▁Airline	-11.0308
▁favourite	-11.0308
▁Saudi	-11.0308
▁schwache	-11.0309
▁Matthi	-11.031
▁municipality	-11.0311
Abteilung	-11.0312
▁Anzeige	-11.0313
▁Gemeinderat	-11.0316
taffel	-11.0328
zehn	-11.0367
schlecht	-11.0369
▁trauma	-11.0408
agger	-11.041
änze	-11.0444
▁Behind	-11.0485
migration	-11.0492
▁Reisende	-11.0495
▁politisch	-11.0504
bindung	-11.0509
▁1,2	-11.0513
▁Arizona	-11.0514
▁Bekannt	-11.0514
▁Charakter	-11.0514
▁Referendum	-11.0514
▁Wahrheit	-11.0514
▁Währung	-11.0514
▁geblieben	-11.0514
▁mattress	-11.0514
▁narrow	-11.0514
▁practical	-11.0514
▁temporar	-11.0514
▁tsunami	-11.0514
▁ultimately	-11.0514
▁Argument	-11.0514
▁Fähigkeit	-11.0514
▁Höchst	-11.0514
▁Lawrence	-11.0514
▁violent	-11.0514
▁Moody	-11.0514
▁platform	-11.0514
▁speculat	-11.0514
▁strict	-11.0514
▁Spannung	-11.0514
conscious	-11.0514
▁Mitchell	-11.0514
▁Second	-11.0514
▁Square	-11.0514
▁ausgeschlossen	-11.0514
▁Bamberg	-11.0514
▁advert	-11.0514
▁changing	-11.0514
▁Pressekonferenz	-11.0514
▁Hayne	-11.0514
▁verfolgen	-11.0514
▁connected	-11.0514
▁Figur	-11.0515
▁expectations	-11.0515
▁worst	-11.0515
▁hoping	-11.0516
▁Damon	-11.0516
▁boat	-11.0516
▁Weltkrieg	-11.0516
▁Trotzdem	-11.0517
▁Autofahrer	-11.0517
▁assistance	-11.0517
▁Funk	-11.0518
▁Version	-11.052
arzt	-11.0521
▁Greg	-11.0521
▁Sollte	-11.0521
▁Vega	-11.0521
▁grew	-11.0524
▁Lohn	-11.0527
roughly	-11.0528
▁Münster	-11.0565
▁gegenseitig	-11.0597
▁Swa	-11.0644
nstatt	-11.0697
▁actual	-11.0713
städt	-11.0723
Württemberg	-11.0726
▁Aktivisten	-11.0726
▁Allgemein	-11.0726
▁Ankündigung	-11.0726
▁Colorado	-11.0726
▁Gedanken	-11.0726
▁Gewerbe	-11.0726
▁Jürgen	-11.0726
▁Schwierigkeiten	-11.0726
▁Singapore	-11.0726
▁Vielleicht	-11.0726
▁acknowledge	-11.0726
▁analysis	-11.0726
▁diskutiert	-11.0726
▁electoral	-11.0726
▁hauptsächlich	-11.0726
▁hört	-11.0726
▁konzentriert	-11.0726
▁kümmern	-11.0726
▁registriert	-11.0726
▁unbekannt	-11.0726
▁Joseph	-11.0726
▁reduziert	-11.0726
Gipfel	-11.0726
gebrochen	-11.0726
▁Ensign	-11.0726
▁chemical	-11.0726
▁museum	-11.0726
▁poverty	-11.0726
▁autumn	-11.0726
▁typical	-11.0726
▁vegan	-11.0726
komplex	-11.0726
▁Lopez	-11.0726
▁hilft	-11.0726
▁Veranstalter	-11.0726
▁Mikro	-11.0727
▁Petersburg	-11.0727
▁brutal	-11.0727
▁Bwelle	-11.0727
▁worry	-11.0727
▁Delta	-11.0727
▁Einnahmen	-11.0727
▁Folk	-11.0727
▁Frühjahr	-11.0727
blut	-11.0728
▁color	-11.0728
▁Prinzip	-11.0728
▁ausreichend	-11.0728
▁motorway	-11.0729
▁extremist	-11.0729
▁niemals	-11.0729
▁Vorsprung	-11.073
▁Rücktritt	-11.073
▁fördern	-11.0732
▁scale	-11.074
stecken	-11.0741
▁Eva	-11.0752
ürmer	-11.0756
national	-11.0762
pause	-11.0782
größte	-11.0797
▁receiv	-11.0814
seitige	-11.0865
runde	-11.0912
fluss	-11.094
Football	-11.0944
▁Angeklagte	-11.0944
▁Brasilien	-11.0944
▁Guangzhou	-11.0944
▁Singapur	-11.0944
▁Sydney	-11.0944
▁Vladimir	-11.0944
▁beobachten	-11.0944
▁criticised	-11.0944
▁draußen	-11.0944
▁geschätzt	-11.0944
▁integration	-11.0944
▁ourselves	-11.0944
▁produziert	-11.0944
▁revolution	-11.0944
▁Original	-11.0944
▁aspect	-11.0944
▁begeistert	-11.0944
▁mortgage	-11.0944
▁1997	-11.0944
▁obvious	-11.0944
▁stammt	-11.0944
▁kitchen	-11.0944
▁Jordan	-11.0944
▁Patrick	-11.0944
▁dedicate	-11.0944
▁reconstruct	-11.0944
▁Werbung	-11.0944
▁pension	-11.0944
▁Judge	-11.0944
▁pitch	-11.0944
▁loyal	-11.0944
▁Ryder	-11.0944
▁saving	-11.0944
▁cyclist	-11.0944
▁Iowa	-11.0944
▁investigate	-11.0944
verlust	-11.0945
▁panel	-11.0946
▁catch	-11.0946
▁household	-11.0946
▁Lukas	-11.0947
▁Riesen	-11.0947
▁championship	-11.0947
▁mittlere	-11.0947
▁sink	-11.0948
▁turnover	-11.095
▁Satz	-11.0951
▁Erwachsene	-11.0957
▁Meteo	-11.0973
▁Pause	-11.0984
teigerung	-11.101
class	-11.1023
brücke	-11.1163
körper	-11.1165
struktur	-11.1166
occupied	-11.1166
▁Englisch	-11.1166
▁Initiative	-11.1166
▁Kategorie	-11.1166
▁Temperatur	-11.1166
▁begleitet	-11.1166
▁gesperrt	-11.1166
▁intelligent	-11.1166
▁konzentrieren	-11.1166
▁tomorrow	-11.1166
▁vermeiden	-11.1166
▁Children	-11.1166
▁Selbstmord	-11.1166
▁Special	-11.1166
▁indicated	-11.1166
▁kanadische	-11.1166
▁smoking	-11.1166
▁wonderful	-11.1166
▁writing	-11.1166
▁Church	-11.1166
▁kritisch	-11.1166
▁Galerie	-11.1166
▁premier	-11.1166
▁unique	-11.1166
▁Stärke	-11.1166
▁herrscht	-11.1166
▁angegriffen	-11.1166
▁ausgewählt	-11.1166
▁caught	-11.1166
▁heavily	-11.1166
▁umfassen	-11.1166
▁Kaffee	-11.1166
Niemand	-11.1166
▁Betracht	-11.1166
▁melden	-11.1166
▁vorhanden	-11.1167
▁Luther	-11.1167
▁beauty	-11.1167
Dienstleistungen	-11.1167
▁Index	-11.1167
bewegung	-11.1167
▁besitzen	-11.1167
▁Keller	-11.1167
▁dominate	-11.1168
▁Bremen	-11.1168
▁failure	-11.1168
▁transform	-11.117
▁wann	-11.1174
▁feiert	-11.1211
spitze	-11.1233
month	-11.125
ffentlich	-11.1276
▁weigh	-11.1287
▁fügt	-11.131
▁Schwester	-11.1324
lobt	-11.1337
umpf	-11.1344
▁Motiv	-11.1346
▁compos	-11.1388
gültig	-11.1392
▁Afghan	-11.1393
wettbewerb	-11.1393
▁Bewusstsein	-11.1393
▁Cornwall	-11.1393
▁Deuschle	-11.1393
▁Diagnose	-11.1393
▁Felstehausen	-11.1393
▁Janeiro	-11.1393
▁Konkurrenz	-11.1393
▁Literatur	-11.1393
▁Sulawesi	-11.1393
▁Verantwortliche	-11.1393
▁Ziegelman	-11.1393
▁ausgestattet	-11.1393
▁explosion	-11.1393
▁verbessert	-11.1393
▁vorläufig	-11.1393
lbstverständlich	-11.1393
▁Macedonia	-11.1393
▁Widerstand	-11.1393
▁closure	-11.1393
▁funktioniert	-11.1393
▁Centcom	-11.1393
▁Nutzung	-11.1393
▁dreht	-11.1393
▁Ailinn	-11.1393
▁Voice	-11.1393
▁vorgesehen	-11.1393
▁memory	-11.1393
▁abroad	-11.1393
▁CBC	-11.1393
▁Cuba	-11.1393
▁Haltung	-11.1393
chaffung	-11.1393
▁Beslan	-11.1393
▁abandon	-11.1393
▁closing	-11.1393
▁nennen	-11.1394
drehen	-11.1394
▁menschliche	-11.1394
▁combine	-11.1394
▁Bieber	-11.1394
▁Vienna	-11.1394
▁Schotten	-11.1394
rechnung	-11.1394
Turnier	-11.1394
▁Webseite	-11.1394
▁erscheint	-11.1394
▁vertraut	-11.1394
▁Plauen	-11.1394
▁audit	-11.1394
▁requirements	-11.1395
▁Heinz	-11.1395
▁Tabelle	-11.1395
einandersetzung	-11.1395
▁Pflege	-11.1396
▁Kreml	-11.1396
rmaßen	-11.1398
▁älter	-11.1405
▁error	-11.1414
reservat	-11.1416
Histori	-11.143
▁Gelände	-11.1455
Mitglied	-11.1478
ographic	-11.1577
▁branch	-11.1595
controlled	-11.1619
▁Prinz	-11.1624
firma	-11.1626
Basketball	-11.1626
▁Kommunikation	-11.1626
▁Münchner	-11.1626
▁Objekt	-11.1626
▁Eatonville	-11.1626
▁Grindel	-11.1626
▁Gründung	-11.1626
▁ISIS	-11.1626
▁Medizin	-11.1626
▁Miguel	-11.1626
▁Nominierung	-11.1626
▁Tatsächlich	-11.1626
▁Technik	-11.1626
▁arriving	-11.1626
▁confident	-11.1626
▁detained	-11.1626
▁diskutieren	-11.1626
▁räumt	-11.1626
▁schlägt	-11.1626
▁ukrainische	-11.1626
▁Buffett	-11.1626
▁Ursache	-11.1626
▁liberal	-11.1626
▁maintenance	-11.1626
▁ocean	-11.1626
▁routine	-11.1626
▁Romney	-11.1626
▁eleven	-11.1626
▁Arsenal	-11.1626
▁Chamber	-11.1626
▁ODS	-11.1626
▁besorgt	-11.1626
▁stammen	-11.1626
▁Tempo	-11.1626
▁relax	-11.1626
▁Mandela	-11.1626
▁vermutet	-11.1626
▁liefert	-11.1626
▁schuldig	-11.1626
▁await	-11.1626
▁Libya	-11.1626
▁Status	-11.1626
▁Fläche	-11.1626
▁senator	-11.1627
▁quiet	-11.1627
▁Oberfläche	-11.1627
zentren	-11.1627
▁Ryan	-11.1627
▁talent	-11.1627
▁abgelehnt	-11.1627
▁wealth	-11.1628
▁zusätzlich	-11.1629
▁Schnell	-11.163
▁verteilt	-11.163
▁sitzt	-11.163
▁tension	-11.1632
sprung	-11.1656
▁Burk	-11.1666
olitical	-11.1682
ddle	-11.1691
Vorsitzende	-11.1716
Gruppe	-11.1717
League	-11.1717
schaden	-11.1721
willig	-11.1752
pipe	-11.184
höhe	-11.1856
▁funktionieren	-11.1864
Vorpommern	-11.1864
▁Einwanderung	-11.1864
▁Guardiola	-11.1864
▁Indonesien	-11.1864
▁Katastrophe	-11.1864
▁Quadratmeter	-11.1864
▁Taliban	-11.1864
▁Verbündete	-11.1864
▁consumption	-11.1864
▁erkannt	-11.1864
▁expense	-11.1864
▁identified	-11.1864
▁impossible	-11.1864
▁impressive	-11.1864
▁konfrontiert	-11.1864
▁luxury	-11.1864
▁reduzieren	-11.1864
▁somewhat	-11.1864
Produzent	-11.1864
telefon	-11.1864
▁Kräfte	-11.1864
▁WADA	-11.1864
Valentino	-11.1864
▁Beteiligung	-11.1864
▁easier	-11.1864
▁reputation	-11.1864
instrument	-11.1864
▁Sekunden	-11.1864
▁unfair	-11.1864
▁unklar	-11.1864
▁Ankara	-11.1864
▁Tennis	-11.1864
▁Airbus	-11.1864
▁Liberal	-11.1864
▁Streik	-11.1864
▁Turner	-11.1864
▁milk	-11.1864
▁false	-11.1864
▁besitzt	-11.1865
▁verändern	-11.1865
▁personnel	-11.1865
▁drohen	-11.1865
▁mood	-11.1865
▁Schalke	-11.1865
▁assets	-11.1865
▁Beratung	-11.1866
▁smoke	-11.1866
▁angry	-11.1866
▁Class	-11.1866
▁Moore	-11.1867
schließt	-11.1867
▁übertragen	-11.1868
▁städtische	-11.1868
▁heftig	-11.187
▁lobte	-11.188
Marc	-11.1892
▁print	-11.1909
flüge	-11.1925
▁criti	-11.1928
Für	-11.1963
Euro	-11.1966
Assad	-11.1983
▁dollar	-11.2027
gehörig	-11.2102
Repräsentant	-11.2108
▁Associate	-11.2108
▁Company	-11.2108
▁Defense	-11.2108
▁Greece	-11.2108
▁Hannover	-11.2108
▁Identität	-11.2108
▁Leichtathlet	-11.2108
▁Pennsylvania	-11.2108
▁Ronaldo	-11.2108
▁Sarkozy	-11.2108
▁Separatisten	-11.2108
▁complicated	-11.2108
▁inhabitants	-11.2108
▁possession	-11.2108
▁resolution	-11.2108
▁schrecklich	-11.2108
▁sensitive	-11.2108
▁smartphone	-11.2108
▁submitted	-11.2108
▁sufficient	-11.2108
▁surveillance	-11.2108
▁voluntary	-11.2108
▁zukünftige	-11.2108
▁Überraschung	-11.2108
▁Foundation	-11.2108
▁Hurston	-11.2108
▁attorney	-11.2108
▁sustain	-11.2108
mechanism	-11.2108
▁Haslach	-11.2108
▁Medaille	-11.2108
▁interessiert	-11.2108
gebäude	-11.2108
▁disrupt	-11.2108
Stiftung	-11.2108
▁Dortmund	-11.2108
▁Reserve	-11.2108
▁Schließung	-11.2108
schrecken	-11.2108
▁Vorbereitung	-11.2108
▁verfügen	-11.2108
▁gäbe	-11.2108
▁Arbeitgeber	-11.2108
▁Treffer	-11.2108
▁Mueller	-11.2108
▁Command	-11.2108
▁Ohne	-11.2108
▁zurückkehren	-11.2108
▁burden	-11.2108
▁belastet	-11.2108
▁untersuchen	-11.2108
▁Zinssätze	-11.2108
▁Vizepräsident	-11.2108
▁behaupten	-11.2108
▁carbon	-11.2109
▁mask	-11.2109
▁dramatisch	-11.2109
▁verglichen	-11.2109
▁freiwillig	-11.2109
▁agenda	-11.2109
▁blind	-11.2109
▁Fleisch	-11.2109
▁escape	-11.2109
▁gelungen	-11.211
▁mirror	-11.211
▁Dauer	-11.2111
leichzeitig	-11.2111
▁westliche	-11.2117
geräte	-11.2138
public	-11.2207
▁beauftragt	-11.2208
Partei	-11.2211
SPD	-11.2211
glob	-11.2218
achtung	-11.2222
▁purchas	-11.2279
▁Rettung	-11.2279
stürzte	-11.2282
geordnet	-11.2299
quote	-11.2304
kampagne	-11.2358
satisfied	-11.2358
▁Anthony	-11.2358
▁Anwohner	-11.2358
▁Einwanderer	-11.2358
▁Elizabeth	-11.2358
▁Gildner	-11.2358
▁Himmel	-11.2358
▁IAEA	-11.2358
▁Jeremy	-11.2358
▁Konzentration	-11.2358
▁Livingston	-11.2358
▁Lomachenko	-11.2358
▁Queensland	-11.2358
▁Regulierung	-11.2358
▁Statistik	-11.2358
▁Tschechische	-11.2358
▁Vermögen	-11.2358
▁accommodate	-11.2358
▁aggressive	-11.2358
▁antwortete	-11.2358
▁aufmerksam	-11.2358
▁concentration	-11.2358
▁consultant	-11.2358
▁decrease	-11.2358
▁earthquake	-11.2358
▁economist	-11.2358
▁guilty	-11.2358
▁lösen	-11.2358
▁symptoms	-11.2358
▁volume	-11.2358
Zigaretten	-11.2358
▁Asylbewerber	-11.2358
▁defense	-11.2358
▁definitiv	-11.2358
▁emphasiz	-11.2358
▁Hewlett	-11.2358
▁Kallstadt	-11.2358
▁Karlsruhe	-11.2358
▁Kimmich	-11.2358
▁Matratze	-11.2358
▁Schongau	-11.2358
▁Sebasti	-11.2358
▁bedroht	-11.2358
▁stadium	-11.2358
▁triumph	-11.2358
▁yourself	-11.2358
▁1995	-11.2358
▁Füße	-11.2358
▁Representatives	-11.2358
▁Umständen	-11.2358
▁Charles	-11.2358
▁PRI	-11.2358
▁investigators	-11.2358
▁Sharif	-11.2358
▁Brother	-11.2358
▁VfB	-11.2358
▁BMI	-11.2358
▁repair	-11.2358
▁AFP	-11.2358
▁disaster	-11.2358
▁eastern	-11.2358
▁faith	-11.2358
▁GfK	-11.2358
▁schottische	-11.2358
▁Zinserhöhung	-11.2358
▁adjust	-11.2358
▁Helfer	-11.2358
▁Nieto	-11.2358
▁amendment	-11.2358
berechtigt	-11.2358
▁barrier	-11.2358
▁Comedy	-11.2358
▁offensive	-11.2359
▁weshalb	-11.2359
Packard	-11.2359
▁pounds	-11.2359
▁horse	-11.2359
▁Where	-11.236
papier	-11.236
kredit	-11.2361
▁scheme	-11.2362
▁conven	-11.2364
Ticket	-11.2365
▁Partie	-11.2367
▁belegt	-11.2377
▁cycle	-11.2386
▁strange	-11.2396
Model	-11.2397
Förderung	-11.2404
▁slip	-11.2419
viertel	-11.2441
club	-11.2473
1:0	-11.2487
power	-11.2508
lehne	-11.2538
▁Wissenschaft	-11.2604
kenntnis	-11.2614
▁Konsequenz	-11.2614
▁nördlich	-11.2614
rundsätzlich	-11.2614
▁Geheimnis	-11.2614
▁Kennedy	-11.2614
▁Marihuana	-11.2614
▁Massachusetts	-11.2614
▁Medikamente	-11.2614
▁Stabilität	-11.2614
▁associated	-11.2614
▁beschädigt	-11.2614
▁beträgt	-11.2614
▁ceremony	-11.2614
▁effektiv	-11.2614
▁genehmigt	-11.2614
▁gestartet	-11.2614
▁kriminelle	-11.2614
▁männliche	-11.2614
▁neither	-11.2614
▁telescope	-11.2614
▁verteidigen	-11.2614
▁veröffentlichen	-11.2614
▁vulnerable	-11.2614
▁Wahrscheinlich	-11.2614
▁easily	-11.2614
▁exposed	-11.2614
▁Favorit	-11.2614
▁elderly	-11.2614
▁israelische	-11.2614
▁weibliche	-11.2614
▁bottle	-11.2614
▁autonom	-11.2614
veranstaltung	-11.2614
▁verbracht	-11.2614
▁ambition	-11.2614
▁silver	-11.2614
▁tackle	-11.2614
▁Schatten	-11.2615
schaftswahl	-11.2615
figur	-11.2615
▁burst	-11.2615
▁scharf	-11.2615
schwimm	-11.2616
▁überzeugen	-11.2616
experte	-11.2617
▁stolen	-11.2617
berater	-11.262
▁convert	-11.2622
▁Glori	-11.2622
American	-11.273
▁mache	-11.2756
reitet	-11.2769
▁Angesicht	-11.2818
nächst	-11.282
▁declare	-11.2836
farbe	-11.2842
▁immediate	-11.2858
familie	-11.2873
gespräch	-11.2877
▁Catholic	-11.2877
▁Eigentümer	-11.2877
▁Medicine	-11.2877
▁Seattle	-11.2877
▁Verdächtige	-11.2877
▁anerkannt	-11.2877
▁collaborati	-11.2877
▁decisive	-11.2877
▁marijuana	-11.2877
▁pedestrian	-11.2877
▁relevant	-11.2877
▁verfügbar	-11.2877
▁yield	-11.2877
▁Torpedo	-11.2877
▁Tunnel	-11.2877
▁basket	-11.2877
▁indonesische	-11.2877
▁Fußgänger	-11.2877
▁Eisenbahn	-11.2877
▁struck	-11.2878
▁smile	-11.2878
▁behalf	-11.2878
▁BMA	-11.2878
▁Schäden	-11.2878
SSD	-11.2878
▁FAA	-11.2878
▁inquiry	-11.2878
▁Smith	-11.2878
▁Kabul	-11.2878
▁wake	-11.2878
▁Güter	-11.2878
küste	-11.2878
▁diverse	-11.2878
▁Tafel	-11.2879
▁englische	-11.2879
▁stoppen	-11.2879
▁define	-11.2879
▁Kaiser	-11.2879
▁Frey	-11.288
disciplin	-11.288
paket	-11.288
▁Mandat	-11.288
▁deutet	-11.2882
▁mandate	-11.2882
▁radical	-11.2883
▁Adria	-11.2893
▁Ebene	-11.2918
bewusst	-11.3
just	-11.3002
elegation	-11.3112
größe	-11.3146
▁Automobil	-11.3148
▁Struktur	-11.3148
▁militant	-11.3148
technologie	-11.3148
thiopien	-11.3148
▁Affairs	-11.3148
▁Anerkennung	-11.3148
▁Borussia	-11.3148
▁Education	-11.3148
▁Energy	-11.3148
▁Ernährung	-11.3148
▁Griechenland	-11.3148
▁Ludwig	-11.3148
▁Perspektive	-11.3148
▁Prognose	-11.3148
▁anticipate	-11.3148
▁begrüßt	-11.3148
▁category	-11.3148
▁divided	-11.3148
▁institute	-11.3148
▁konservative	-11.3148
▁registration	-11.3148
▁widespread	-11.3148
▁übernommen	-11.3148
▁afraid	-11.3148
▁wütend	-11.3148
▁regret	-11.3148
▁wunderbar	-11.3148
▁minimum	-11.3148
▁dunkle	-11.3148
▁genutzt	-11.3148
gestaltet	-11.3148
▁tätig	-11.3148
▁NPD	-11.3148
▁Though	-11.3148
▁Nahrung	-11.3148
technik	-11.3148
▁DNA	-11.3148
▁criticiz	-11.3148
▁Civil	-11.3148
▁Major	-11.3148
▁sought	-11.3148
▁clash	-11.3148
▁Unterricht	-11.3148
▁strain	-11.3148
▁Japanese	-11.3149
▁ungarische	-11.3149
▁kennt	-11.3149
affirm	-11.3149
▁Estate	-11.315
▁versprach	-11.315
▁Angehörige	-11.3153
▁stärkste	-11.3156
branche	-11.3184
▁durfte	-11.3193
rauben	-11.3202
$	-11.3278
platte	-11.3278
Gerade	-11.3308
lokal	-11.3333
▁Müll	-11.334
Lieb	-11.3354
▁Hilarius	-11.3425
▁gefährde	-11.3425
▁succeed	-11.3425
Hagborg	-11.3425
infektionsmittel	-11.3425
▁AIDS	-11.3425
▁Auslieferung	-11.3425
▁Balkan	-11.3425
▁Detroit	-11.3425
▁Executive	-11.3425
▁Hamilton	-11.3425
▁Melbourne	-11.3425
▁Minnesota	-11.3425
▁Mourinho	-11.3425
▁NASA	-11.3425
▁Nordkorea	-11.3425
▁Stattdessen	-11.3425
▁Symptome	-11.3425
▁Tumlingen	-11.3425
▁WikiLeaks	-11.3425
▁Zentimeter	-11.3425
▁administrative	-11.3425
▁attraktiv	-11.3425
▁beeinflusst	-11.3425
▁benötigen	-11.3425
▁bilateral	-11.3425
▁brilliant	-11.3425
▁celebration	-11.3425
▁circle	-11.3425
▁concrete	-11.3425
▁conservative	-11.3425
▁crucial	-11.3425
▁deliberate	-11.3425
▁diagnosed	-11.3425
▁gestorben	-11.3425
▁identifiziert	-11.3425
▁olympische	-11.3425
▁surprising	-11.3425
▁Özil	-11.3425
▁Convercent	-11.3425
▁FedEx	-11.3425
▁Glauben	-11.3425
▁Nevada	-11.3425
▁Luxus	-11.3425
▁Prestige	-11.3425
▁erinnere	-11.3425
▁Serbien	-11.3425
▁1996	-11.3425
▁disturb	-11.3425
▁Fortuna	-11.3425
▁Gilead	-11.3425
▁Renamo	-11.3426
▁syrische	-11.3426
▁verringern	-11.3426
▁defect	-11.3426
▁repeatedly	-11.3426
▁besagt	-11.3426
sammeln	-11.3426
▁nennt	-11.3426
tätigkeit	-11.3426
greift	-11.3426
▁gefeiert	-11.3426
▁Oscar	-11.3426
treuung	-11.3426
▁accusations	-11.3426
studio	-11.3426
▁Freiwillige	-11.3426
▁rural	-11.3426
▁Ditta	-11.3426
▁Sturz	-11.3426
▁letztendlich	-11.3427
▁racing	-11.3427
▁tennis	-11.3427
▁Ferien	-11.3427
sektor	-11.3428
Gabby	-11.3429
▁exhaust	-11.3429
graduate	-11.343
geholt	-11.3431
schießen	-11.3432
schüss	-11.3433
▁genetic	-11.3436
▁Media	-11.3439
analyse	-11.3447
ichert	-11.3525
Unternehmen	-11.3564
betracht	-11.3588
▁exhibit	-11.3703
▁Anwälte	-11.3711
▁Ecuador	-11.3711
▁Furthermore	-11.3711
▁Geschwindigkeit	-11.3711
▁Köln	-11.3711
▁Phänomen	-11.3711
▁Schönheit	-11.3711
▁Treasury	-11.3711
▁Völker	-11.3711
▁kurzfristig	-11.3711
▁proceedings	-11.3711
▁spezialisiert	-11.3711
▁tötete	-11.3711
▁versprochen	-11.3711
▁wächst	-11.3711
▁erfüllt	-11.3711
▁twelve	-11.3711
▁Cologne	-11.3711
▁Wirklichkeit	-11.3711
▁verzichten	-11.3711
▁2019	-11.3711
▁Channel	-11.3711
▁explanation	-11.3711
▁Eintracht	-11.3711
▁1992	-11.3711
▁proportion	-11.3711
Konferenz	-11.3711
▁Sektor	-11.3711
▁humor	-11.3711
▁dringend	-11.3711
▁friedlich	-11.3711
▁Nelson	-11.3711
fonds	-11.3711
▁Vorschriften	-11.3711
▁parish	-11.3711
▁Räume	-11.3712
▁equipp	-11.3712
▁Mischung	-11.3712
▁Schweigen	-11.3712
▁exceed	-11.3712
▁folk	-11.3712
▁Honda	-11.3712
▁körperliche	-11.3712
▁leitende	-11.3712
▁Watch	-11.3712
▁Dutch	-11.3712
pläne	-11.3712
bücher	-11.3713
▁mild	-11.3717
Maschine	-11.3729
shirt	-11.3729
▁tradition	-11.375
Player	-11.378
Politik	-11.3858
▁historic	-11.3864
beginn	-11.3927
▁profession	-11.3942
ruft	-11.3952
▁compromise	-11.4005
gypten	-11.4005
▁Anschuldigung	-11.4005
▁Anwendung	-11.4005
▁Berkeley	-11.4005
▁Chicago	-11.4005
▁Edmund	-11.4005
▁Erholung	-11.4005
▁Explosion	-11.4005
▁FIFA	-11.4005
▁Faktoren	-11.4005
▁Gazprom	-11.4005
▁Genehmigung	-11.4005
▁Gremium	-11.4005
▁Mogherini	-11.4005
▁Palestinian	-11.4005
▁Rajchl	-11.4005
▁Rhön	-11.4005
▁Weltrekord	-11.4005
▁Würzburg	-11.4005
▁advisor	-11.4005
▁agencies	-11.4005
▁außergewöhnlich	-11.4005
▁bestätigen	-11.4005
▁celebrating	-11.4005
▁currency	-11.4005
▁embassy	-11.4005
▁empty	-11.4005
▁enterprise	-11.4005
▁gesunken	-11.4005
▁indicates	-11.4005
▁intervention	-11.4005
▁monument	-11.4005
▁muslimische	-11.4005
▁phenomenon	-11.4005
▁römische	-11.4005
▁Schließlich	-11.4005
▁getrennt	-11.4005
▁shadow	-11.4005
▁Hoffmann	-11.4005
▁Methode	-11.4005
▁schwäch	-11.4005
▁swimmer	-11.4005
▁Belagerung	-11.4005
▁Popular	-11.4005
▁inspired	-11.4005
▁Wagner	-11.4005
▁feminist	-11.4005
▁Catalan	-11.4005
▁lobby	-11.4005
▁Dubai	-11.4005
▁prompt	-11.4005
▁labour	-11.4005
▁Bloom	-11.4005
▁Dundee	-11.4005
▁RBS	-11.4005
▁gymnastics	-11.4005
▁lunch	-11.4005
tägige	-11.4005
▁margin	-11.4006
▁Rapid	-11.4006
▁clever	-11.4006
▁amazing	-11.4006
flucht	-11.4006
▁Papst	-11.4006
▁Good	-11.4006
▁Einheimische	-11.4006
▁steckt	-11.4009
▁freut	-11.4011
schieben	-11.4012
▁schickt	-11.4012
▁visibl	-11.4016
erichterstattung	-11.4018
▁oberste	-11.4036
▁Öko	-11.4046
Girl	-11.409
known	-11.4156
chief	-11.4202
pulse	-11.4279
▁drama	-11.4298
▁Beobachtung	-11.4308
▁iPhone	-11.4308
▁Adelaide	-11.4308
▁Amnesty	-11.4308
▁Herzinfarkt	-11.4308
▁Ingenieur	-11.4308
▁Kanzlerin	-11.4308
▁MRSA	-11.4308
▁Teenager	-11.4308
▁Versorgung	-11.4308
▁Zustimmung	-11.4308
▁appointment	-11.4308
▁bacteria	-11.4308
▁calendar	-11.4308
▁enforcement	-11.4308
▁exposure	-11.4308
▁facilities	-11.4308
▁geschieht	-11.4308
▁japanische	-11.4308
▁kulturelle	-11.4308
▁maximal	-11.4308
▁plenty	-11.4308
▁premises	-11.4308
schränke	-11.4308
▁Franzose	-11.4308
▁Gerechtigkeit	-11.4308
▁grundlegend	-11.4308
▁irgendwann	-11.4308
▁permitted	-11.4308
▁Georgij	-11.4308
▁anbieten	-11.4308
▁transaction	-11.4308
▁Afrika	-11.4308
▁Gülen	-11.4308
▁parallel	-11.4308
▁EZB	-11.4308
▁cloud	-11.4308
▁elegant	-11.4308
▁Belarus	-11.4308
▁Verpflichtung	-11.4308
▁delighted	-11.4308
▁license	-11.4308
▁Attacke	-11.4308
▁Aufenthalt	-11.4308
▁Watson	-11.4309
▁examined	-11.4309
▁interior	-11.4309
▁liebt	-11.4309
▁neutral	-11.4309
▁Gestalt	-11.4309
▁invoice	-11.4309
artoffel	-11.4309
▁SAP	-11.4309
▁auction	-11.4309
▁endgültige	-11.431
▁leitet	-11.4311
gäste	-11.4313
▁Fertig	-11.4315
▁Heilig	-11.432
erwerb	-11.4322
▁strip	-11.4401
System	-11.4474
arabi	-11.4517
Russi	-11.4555
▁Züge	-11.4558
▁Hinsicht	-11.4601
erhaps	-11.4619
▁Jörg	-11.4621
▁gescheitert	-11.4621
▁recruit	-11.4621
ekämpfung	-11.4621
verhandlung	-11.4621
verteidiger	-11.4621
▁Bellamy	-11.4621
▁Braunschweig	-11.4621
▁Budapest	-11.4621
▁Dettori	-11.4621
▁Development	-11.4621
▁Exchange	-11.4621
▁Klimawandel	-11.4621
▁Pflanzen	-11.4621
▁Salzhausen	-11.4621
▁Schneider	-11.4621
▁Skinner	-11.4621
▁Verständnis	-11.4621
▁Wachtberg	-11.4621
▁Zelaya	-11.4621
▁bescheiden	-11.4621
▁beschränkt	-11.4621
▁chocolate	-11.4621
▁convicted	-11.4621
▁demonstrators	-11.4621
▁entspricht	-11.4621
▁expansion	-11.4621
▁fantastic	-11.4621
▁horror	-11.4621
▁identifizieren	-11.4621
▁identity	-11.4621
▁investigating	-11.4621
▁necessarily	-11.4621
▁participation	-11.4621
▁residence	-11.4621
▁sanitizer	-11.4621
▁vaccination	-11.4621
▁yellow	-11.4621
▁zählen	-11.4621
▁österreichische	-11.4621
gerechnet	-11.4621
sprüche	-11.4621
▁Carolina	-11.4621
▁Jokowi	-11.4621
▁Minderheit	-11.4621
▁Verfolgung	-11.4621
▁inspection	-11.4621
▁PrEP	-11.4621
▁Rhodes	-11.4621
▁Lauterbach	-11.4621
▁renovation	-11.4621
▁transition	-11.4621
Generaldirektor	-11.4621
▁confess	-11.4621
▁PHE	-11.4621
▁Register	-11.4621
▁BVB	-11.4621
▁Stadium	-11.4621
▁Walmart	-11.4621
▁Charlie	-11.4621
▁Hofmann	-11.4621
Organisator	-11.4621
▁Rivalen	-11.4621
▁Wolfsburg	-11.4621
▁absurd	-11.4621
▁Urbach	-11.4621
▁mutual	-11.4621
▁Piffl	-11.4621
▁Correa	-11.4621
▁Debüt	-11.4621
▁bonus	-11.4621
▁Signal	-11.4621
▁dominiert	-11.4621
▁Taxi	-11.4621
▁Später	-11.4621
▁Isabel	-11.4621
▁studiert	-11.4621
Boisheim	-11.4622
Javier	-11.463
stufe	-11.4632
Food	-11.4636
accessible	-11.4807
▁resident	-11.4859
exuelle	-11.4875
▁apparent	-11.4924
graphy	-11.493
medizin	-11.4941
kandidat	-11.4943
Mazedonien	-11.4943
psychiatri	-11.4943
▁Attorney	-11.4943
▁Bitcoin	-11.4943
▁Einschränkung	-11.4943
▁Empfehlung	-11.4943
▁Kenntnis	-11.4943
▁Konkurrent	-11.4943
▁Langeweile	-11.4943
▁Niedersachsen	-11.4943
▁Plätze	-11.4943
▁Symbol	-11.4943
▁YMCA	-11.4943
▁academic	-11.4943
▁akzeptieren	-11.4943
▁appreciate	-11.4943
▁extraordinary	-11.4943
▁kommerzielle	-11.4943
▁manufacturing	-11.4943
▁medicine	-11.4943
▁potenzielle	-11.4943
▁preserved	-11.4943
▁psychisch	-11.4943
▁qualifiziert	-11.4943
▁statistics	-11.4943
▁Aufklärung	-11.4943
▁Bohemia	-11.4943
▁Magazin	-11.4943
▁Taiwan	-11.4943
▁cabinet	-11.4943
▁gewarnt	-11.4943
gedreht	-11.4943
▁departure	-11.4943
▁pipeline	-11.4943
▁1968	-11.4943
▁Arbeitnehmer	-11.4943
▁resembl	-11.4943
Update	-11.4943
prozentige	-11.4943
zweifelt	-11.4943
▁benutzen	-11.4943
▁worried	-11.4943
▁verdienen	-11.4943
▁Compani	-11.4943
▁otherwise	-11.4943
▁Geburtstag	-11.4944
▁Pilger	-11.4944
▁assured	-11.4944
abteilung	-11.4944
▁wohnt	-11.4944
▁Stadion	-11.4944
▁Verhaftung	-11.4944
▁racial	-11.4944
scheibe	-11.4945
verbrauch	-11.4947
Sometimes	-11.4952
Donnell	-11.4954
pleasant	-11.4961
▁Anruf	-11.5118
People	-11.5129
General	-11.513
Platz	-11.513
▁Bereits	-11.5204
▁Direkt	-11.5267
▁Virgin	-11.5269
▁cooperat	-11.527
▁gymnast	-11.5276
ordinator	-11.5277
rtificial	-11.5277
▁Assistenzärzte	-11.5277
▁Edinburgh	-11.5277
▁Entschädigung	-11.5277
▁Foodwatch	-11.5277
▁Fotograf	-11.5277
▁Freilassung	-11.5277
▁Grönlandhai	-11.5277
▁Intelligence	-11.5277
▁Kollision	-11.5277
▁Konservative	-11.5277
▁Phillip	-11.5277
▁Präsentation	-11.5277
▁Venezuela	-11.5277
▁Weihnachten	-11.5277
▁accelerat	-11.5277
▁advocat	-11.5277
▁appointed	-11.5277
▁beeinflussen	-11.5277
▁ergänzt	-11.5277
▁eröffnen	-11.5277
▁ethnic	-11.5277
▁gestohlen	-11.5277
▁herauszufinden	-11.5277
▁recognition	-11.5277
▁religiöse	-11.5277
▁restructuring	-11.5277
▁scientific	-11.5277
▁survival	-11.5277
▁sympath	-11.5277
▁terrible	-11.5277
▁unexpected	-11.5277
▁verheiratet	-11.5277
▁Brooks	-11.5277
▁Halbjahr	-11.5277
▁Lufthansa	-11.5277
▁Roosevelt	-11.5277
▁Salzburg	-11.5277
▁Vogue	-11.5277
▁Voraussetzung	-11.5277
▁deposit	-11.5277
▁inspector	-11.5277
▁philosoph	-11.5277
▁twenty	-11.5277
▁verhindert	-11.5277
▁veteran	-11.5277
▁Studio	-11.5277
▁Vorhaben	-11.5277
▁extension	-11.5277
▁exploit	-11.5277
▁extortion	-11.5277
▁Dublin	-11.5277
▁Jedoch	-11.5277
▁Pelosi	-11.5277
▁continent	-11.5277
▁verringert	-11.5277
▁Brighton	-11.5277
▁ceiling	-11.5277
▁RPG	-11.5277
▁slogan	-11.5277
▁vielmehr	-11.5277
▁Evangeli	-11.5277
▁poison	-11.5277
▁Welche	-11.5277
▁Pension	-11.5277
Affäre	-11.5277
▁Bewertung	-11.5278
▁Statue	-11.5278
▁explor	-11.5278
abgeordnete	-11.5279
▁flame	-11.528
Wichtig	-11.5443
technisch	-11.5505
würdige	-11.5536
▁consume	-11.5573
Qaida	-11.5622
geschwindigkeit	-11.5622
▁Alexandr	-11.5622
▁Authority	-11.5622
▁Citizen	-11.5622
▁Enthüllung	-11.5622
▁Erkrankung	-11.5622
▁Instrument	-11.5622
▁Jerusalem	-11.5622
▁Netanyahu	-11.5622
▁Official	-11.5622
▁Plattform	-11.5622
▁TIME	-11.5622
▁Zapatero	-11.5622
▁assembly	-11.5622
▁disagree	-11.5622
▁individuell	-11.5622
▁obstacle	-11.5622
▁possibly	-11.5622
▁privilege	-11.5622
▁replied	-11.5622
▁swimming	-11.5622
▁tobacco	-11.5622
▁zugänglich	-11.5622
▁zurückzukehren	-11.5622
defizit	-11.5622
missbrauch	-11.5622
▁Disziplin	-11.5622
▁Qualifikation	-11.5622
▁landesweit	-11.5622
▁memories	-11.5622
▁prospect	-11.5622
▁vereinbart	-11.5622
erabschied	-11.5622
▁Hilfs	-11.5622
▁Risiken	-11.5622
▁substance	-11.5622
▁versteckt	-11.5622
▁vinyl	-11.5622
▁Supercup	-11.5622
▁concentrate	-11.5622
▁petrol	-11.5622
▁verdict	-11.5622
▁inaugura	-11.5622
▁boundar	-11.5622
▁Gesetzgeber	-11.5622
▁erweitert	-11.5622
▁Viktor	-11.5622
▁Erkenntnisse	-11.5622
▁History	-11.5622
Arbeitslosigkeit	-11.5622
▁Nissan	-11.5622
▁vergleichbar	-11.5622
▁Bruce	-11.5622
▁Tabak	-11.5622
▁adapt	-11.5622
befehl	-11.5622
▁giganti	-11.5622
▁Schüsse	-11.5622
▁Überreste	-11.5622
Olympiasieger	-11.5623
▁jegliche	-11.5623
▁relieve	-11.5623
artikel	-11.5627
▁ideolog	-11.565
treitigkeiten	-11.5657
Roll	-11.5714
characteristic	-11.5738
except	-11.5785
Paket	-11.5835
direct	-11.5867
Außenministerium	-11.5889
▁Secret	-11.5977
bewohner	-11.5979
▁Academy	-11.5979
▁Aiwanger	-11.5979
▁Ancelotti	-11.5979
▁Bombardier	-11.5979
▁Bulgarien	-11.5979
▁Bundeskanzler	-11.5979
▁Dobrindt	-11.5979
▁Fujitsu	-11.5979
▁Jakarta	-11.5979
▁Michigan	-11.5979
▁Qadri	-11.5979
▁Röszke	-11.5979
▁Salzwedel	-11.5979
▁Schrammel	-11.5979
▁Söllner	-11.5979
▁Verzögerung	-11.5979
▁beeinträchtigt	-11.5979
▁beruhigen	-11.5979
▁beschäftigen	-11.5979
▁bezeichnen	-11.5979
▁cathedral	-11.5979
▁diagnosis	-11.5979
▁episode	-11.5979
▁erleichtert	-11.5979
▁evident	-11.5979
▁kandidieren	-11.5979
▁künstlich	-11.5979
▁musikalisch	-11.5979
▁mutmaßlich	-11.5979
▁pilgrimage	-11.5979
▁radikal	-11.5979
▁resistance	-11.5979
▁suspicion	-11.5979
▁älteste	-11.5979
chirurg	-11.5979
▁Gastgeber	-11.5979
▁Gipfeltreffen	-11.5979
▁Wilhelm	-11.5979
▁bottom	-11.5979
▁denjenigen	-11.5979
▁gewährt	-11.5979
▁muscle	-11.5979
▁verwandelt	-11.5979
grenzung	-11.5979
iological	-11.5979
therapie	-11.5979
▁Bedarf	-11.5979
▁Bettencourt	-11.5979
▁Freudenstadt	-11.5979
▁Hampton	-11.5979
▁Ozean	-11.5979
▁Schreiben	-11.5979
▁facility	-11.5979
▁marriage	-11.5979
egenwärtig	-11.5979
skandal	-11.5979
▁Galicia	-11.5979
▁exciting	-11.5979
▁Jersey	-11.5979
▁eliminat	-11.5979
▁schmutzig	-11.5979
▁Mordillo	-11.5979
▁manipulat	-11.5979
▁überrascht	-11.5979
bezirk	-11.5979
▁1993	-11.5979
▁Steuerzahler	-11.5979
▁quantit	-11.5979
▁Dialog	-11.5979
athletic	-11.5979
▁Jacob	-11.5979
▁zivile	-11.5979
▁Bordini	-11.5979
▁Fremd	-11.5979
▁derjenige	-11.5979
▁nutzte	-11.5979
▁arabische	-11.598
erkrankung	-11.5982
reliminar	-11.5983
Garantie	-11.5984
archiv	-11.6084
afrikanische	-11.6228
etropolitan	-11.6349
▁Chávez	-11.6349
▁Currently	-11.6349
▁Halbzeit	-11.6349
▁Independent	-11.6349
▁Kopenhagen	-11.6349
▁Notwendigkeit	-11.6349
▁Offizier	-11.6349
▁Phoenix	-11.6349
▁Priorität	-11.6349
▁Rezession	-11.6349
▁Vergewaltigung	-11.6349
▁abgestimmt	-11.6349
▁certificate	-11.6349
▁custody	-11.6349
▁empfohlen	-11.6349
▁erlauben	-11.6349
▁financing	-11.6349
▁ingredient	-11.6349
▁kindergarten	-11.6349
▁ländliche	-11.6349
▁nevertheless	-11.6349
▁producing	-11.6349
▁präsentieren	-11.6349
▁securities	-11.6349
▁verzeichnen	-11.6349
▁vorübergehend	-11.6349
▁zwanzig	-11.6349
▁Öffnung	-11.6349
▁östliche	-11.6349
Qaeda	-11.6349
alkohol	-11.6349
dimensional	-11.6349
▁Begegnung	-11.6349
▁Economy	-11.6349
▁Treasure	-11.6349
▁analysiert	-11.6349
▁befürchtet	-11.6349
▁beinhaltet	-11.6349
geräumt	-11.6349
▁befürchten	-11.6349
▁inflammat	-11.6349
▁inspiriert	-11.6349
▁Geisingen	-11.6349
▁Mahlzeit	-11.6349
▁breakfast	-11.6349
▁serving	-11.6349
▁cluster	-11.6349
▁Kläger	-11.6349
▁Nielsen	-11.6349
▁potato	-11.6349
▁Turks	-11.6349
▁lecture	-11.6349
urlaub	-11.6349
▁Gerücht	-11.6349
▁serbische	-11.6349
▁geschützt	-11.6349
▁iranische	-11.6349
genossen	-11.6349
▁tactic	-11.6349
▁Schwäche	-11.635
Manchmal	-11.6351
▁incredibl	-11.6406
wahrt	-11.6537
(	-12.1564
Ü	-12.3445
„	-13.9747
ö	-14.4749
–	-14.4749
